{
  "version": "1.0",
  "truncation": null,
  "padding": null,
  "added_tokens": [
    {
      "id": 0,
      "content": "<s>",
      "single_word": false,
      "lstrip": false,
      "rstrip": false,
      "normalized": false,
      "special": true
    },
    {
      "id": 1,
      "content": "<pad>",
      "single_word": false,
      "lstrip": false,
      "rstrip": false,
      "normalized": false,
      "special": true
    },
    {
      "id": 2,
      "content": "</s>",
      "single_word": false,
      "lstrip": false,
      "rstrip": false,
      "normalized": false,
      "special": true
    },
    {
      "id": 3,
      "content": "<unk>",
      "single_word": false,
      "lstrip": false,
      "rstrip": false,
      "normalized": false,
      "special": true
    },
    {
      "id": 4,
      "content": "<mask>",
      "single_word": false,
      "lstrip": false,
      "rstrip": false,
      "normalized": false,
      "special": true
    },
    {
      "id": 5,
      "content": "<MBH>",
      "single_word": false,
      "lstrip": false,
      "rstrip": false,
      "normalized": false,
      "special": true
    },
    {
      "id": 6,
      "content": "<RAM>",
      "single_word": false,
      "lstrip": false,
      "rstrip": false,
      "normalized": false,
      "special": true
    },
    {
      "id": 7,
      "content": "<eos>",
      "single_word": false,
      "lstrip": false,
      "rstrip": false,
      "normalized": false,
      "special": true
    }
  ],
  "normalizer": {
    "type": "Sequence",
    "normalizers": [
      {
        "type": "NFKC"
      }
    ]
  },
  "pre_tokenizer": {
    "type": "Metaspace",
    "replacement": "▁",
    "prepend_scheme": "always",
    "split": true
  },
  "post_processor": {
    "type": "TemplateProcessing",
    "single": [
      {
        "Sequence": {
          "id": "A",
          "type_id": 0
        }
      }
    ],
    "pair": [
      {
        "Sequence": {
          "id": "A",
          "type_id": 0
        }
      },
      {
        "Sequence": {
          "id": "B",
          "type_id": 1
        }
      }
    ],
    "special_tokens": {}
  },
  "decoder": null,
  "model": {
    "type": "Unigram",
    "unk_id": 3,
    "vocab": [
      [
        "<s>",
        0.0
      ],
      [
        "<pad>",
        0.0
      ],
      [
        "</s>",
        0.0
      ],
      [
        "<unk>",
        0.0
      ],
      [
        "<mask>",
        0.0
      ],
      [
        "<MBH>",
        0.0
      ],
      [
        "<RAM>",
        0.0
      ],
      [
        "<eos>",
        0.0
      ],
      [
        "▁",
        -2.1287847064999728
      ],
      [
        "॥",
        -3.4222873791802684
      ],
      [
        ">",
        -3.4222873791802684
      ],
      [
        "M",
        -3.4222873791802684
      ],
      [
        "<",
        -3.4222873791802684
      ],
      [
        "▁<eos>",
        -3.4222873791802684
      ],
      [
        "\n",
        -3.42229755015434
      ],
      [
        "\r",
        -3.42229755015434
      ],
      [
        "।",
        -3.42229755015434
      ],
      [
        "ं",
        -3.5834597591872583
      ],
      [
        "H",
        -3.637416659778452
      ],
      [
        "B",
        -3.637416659778452
      ],
      [
        "ः",
        -3.7427264927537855
      ],
      [
        "म्",
        -4.606034422489337
      ],
      [
        "▁च",
        -4.764041836510321
      ],
      [
        "ि",
        -4.9319641236618725
      ],
      [
        "े",
        -5.062427334716967
      ],
      [
        "R",
        -5.0644668036124365
      ],
      [
        "A",
        -5.0644668036124365
      ],
      [
        "ो",
        -5.092507000600692
      ],
      [
        "ा",
        -5.277516136439074
      ],
      [
        "▁स",
        -5.333947338392136
      ],
      [
        "▁न",
        -5.3967961799787165
      ],
      [
        "ाः",
        -5.774405329455627
      ],
      [
        "स्य",
        -5.829687420010238
      ],
      [
        "श्च",
        -5.914794636676799
      ],
      [
        "ौ",
        -5.93142369950619
      ],
      [
        ";",
        -6.028406925342406
      ],
      [
        "म",
        -6.185629905243411
      ],
      [
        "ेन",
        -6.244817588257224
      ],
      [
        "▁उवाच",
        -6.260702297381441
      ],
      [
        "ैः",
        -6.272758230432855
      ],
      [
        "▁ते",
        -6.307991940419733
      ],
      [
        "▁तु",
        -6.324197496590692
      ],
      [
        "ान्",
        -6.395543508737669
      ],
      [
        "▁हि",
        -6.438767162119412
      ],
      [
        "ेषु",
        -6.570070027512243
      ],
      [
        "▁मे",
        -6.665861666961089
      ],
      [
        "ी",
        -6.691322479473827
      ],
      [
        "▁अ",
        -6.733500437907328
      ],
      [
        "ानि",
        -6.735009863938023
      ],
      [
        "▁तथा",
        -6.738545581348218
      ],
      [
        "▁यथा",
        -6.74840036591265
      ],
      [
        "▁ततः",
        -6.838185741785226
      ],
      [
        "ति",
        -6.874427076827363
      ],
      [
        "▁वा",
        -6.878135242846382
      ],
      [
        "▁तं",
        -6.899871780375642
      ],
      [
        "▁वै",
        -6.914128958406559
      ],
      [
        "▁तस्य",
        -6.970857704796655
      ],
      [
        "्य",
        -6.975275920104169
      ],
      [
        "▁ततो",
        -6.9796838468133595
      ],
      [
        "त",
        -6.982444167078684
      ],
      [
        "न",
        -7.044111481102232
      ],
      [
        "ां",
        -7.051928901517375
      ],
      [
        "ानां",
        -7.0662120585364985
      ],
      [
        "▁तत्र",
        -7.08224016986653
      ],
      [
        "न्",
        -7.12744968451318
      ],
      [
        "▁चैव",
        -7.158792384804111
      ],
      [
        "ेण",
        -7.162186386500796
      ],
      [
        "▁सह",
        -7.186780549635812
      ],
      [
        "▁मम",
        -7.186834208133452
      ],
      [
        "▁दृष्ट्वा",
        -7.1901768466961
      ],
      [
        "स्तु",
        -7.209617945772063
      ],
      [
        "▁तदा",
        -7.212427047352617
      ],
      [
        "▁सर्व",
        -7.228549135634878
      ],
      [
        "▁सर्वे",
        -7.251933930887254
      ],
      [
        "या",
        -7.258298552774703
      ],
      [
        "ते",
        -7.27591324897102
      ],
      [
        "▁भारत",
        -7.278807896828846
      ],
      [
        "▁राजा",
        -7.294281855634815
      ],
      [
        "र",
        -7.298904203742894
      ],
      [
        "्",
        -7.312631309308633
      ],
      [
        "ाय",
        -7.353138985781637
      ],
      [
        "▁तव",
        -7.359659644115077
      ],
      [
        "▁त्वं",
        -7.411666201549102
      ],
      [
        "▁प्र",
        -7.418888485051056
      ],
      [
        "▁राजन्",
        -7.420971625041254
      ],
      [
        "व",
        -7.422501323404983
      ],
      [
        "ु",
        -7.431528837902008
      ],
      [
        "ाश्च",
        -7.4415389156615985
      ],
      [
        "▁मया",
        -7.466159296850503
      ],
      [
        "ैर्",
        -7.479627657379344
      ],
      [
        "ात्",
        -7.50011855851891
      ],
      [
        "र्",
        -7.526968495782918
      ],
      [
        "▁सा",
        -7.528462417452257
      ],
      [
        "त्",
        -7.538900540223269
      ],
      [
        "सि",
        -7.540873392932588
      ],
      [
        "▁पुनः",
        -7.557819259529175
      ],
      [
        "▁वि",
        -7.576380694619711
      ],
      [
        "य",
        -7.6085966502349
      ],
      [
        "▁किं",
        -7.612816054669183
      ],
      [
        "▁ये",
        -7.62088126471847
      ],
      [
        "▁श्रुत्वा",
        -7.654144112958268
      ],
      [
        "ैश्च",
        -7.663596755074621
      ],
      [
        "▁प्रति",
        -7.669211965572388
      ],
      [
        "ाम्",
        -7.671273693426186
      ],
      [
        "▁ह",
        -7.680400897177758
      ],
      [
        "श्चैव",
        -7.69303843336435
      ],
      [
        "स्तथा",
        -7.695502087828057
      ],
      [
        "▁मां",
        -7.711893364730189
      ],
      [
        "▁इव",
        -7.731856706227623
      ],
      [
        "▁युधिष्ठिर",
        -7.7414416204120675
      ],
      [
        "▁रणे",
        -7.755313406573816
      ],
      [
        "▁महाराज",
        -7.759501008198448
      ],
      [
        "न्ति",
        -7.776296733770201
      ],
      [
        "ाणि",
        -7.783012951415039
      ],
      [
        "स",
        -7.784526026598916
      ],
      [
        "▁एवं",
        -7.80751086827962
      ],
      [
        "ापि",
        -7.814329657661244
      ],
      [
        "▁तेन",
        -7.820769642362233
      ],
      [
        "▁मा",
        -7.833358230147168
      ],
      [
        "तः",
        -7.833560140963892
      ],
      [
        "मिव",
        -7.836742534421097
      ],
      [
        "▁धर्म",
        -7.843745050566405
      ],
      [
        "▁कृत्वा",
        -7.845876871547272
      ],
      [
        "ांश्च",
        -7.846265958209685
      ],
      [
        "ान",
        -7.846809600147182
      ],
      [
        "▁यदि",
        -7.847792014632373
      ],
      [
        "▁नाम",
        -7.864741146105735
      ],
      [
        "▁कथं",
        -7.868834977794932
      ],
      [
        "▁एव",
        -7.874005603572296
      ],
      [
        "▁अथ",
        -7.880920063319929
      ],
      [
        "▁सम",
        -7.883525630904009
      ],
      [
        "▁पुत्र",
        -7.905498388793376
      ],
      [
        "▁इति",
        -7.911318824534968
      ],
      [
        "ोऽ",
        -7.921994439248569
      ],
      [
        "▁देव",
        -7.934676349364852
      ],
      [
        "ं;",
        -7.936335814658827
      ],
      [
        "▁यत्र",
        -7.943673843554659
      ],
      [
        "स्व",
        -7.95271938917449
      ],
      [
        "▁संजय",
        -7.957927881875962
      ],
      [
        "यः",
        -7.962926561482074
      ],
      [
        "▁तां",
        -7.962987273626365
      ],
      [
        "▁वैशंपायन",
        -7.964103348206459
      ],
      [
        "▁य",
        -7.965408552385277
      ],
      [
        "▁कर्म",
        -7.970762098522164
      ],
      [
        "▁त्वया",
        -7.9755817203504895
      ],
      [
        "▁सु",
        -8.007126860584926
      ],
      [
        "स्तदा",
        -8.009329719954376
      ],
      [
        "▁चापि",
        -8.010376742792488
      ],
      [
        "▁समरे",
        -8.011164951825362
      ],
      [
        "द",
        -8.01184693666291
      ],
      [
        "▁स्म",
        -8.025069440158621
      ],
      [
        "पि",
        -8.031821648971873
      ],
      [
        "▁वचन",
        -8.033545711708832
      ],
      [
        "मेव",
        -8.03819431658891
      ],
      [
        "▁यो",
        -8.041861909888915
      ],
      [
        "▁भीष्म",
        -8.049964413829812
      ],
      [
        "▁तेषां",
        -8.06200223045191
      ],
      [
        "▁राम",
        -8.064789482036307
      ],
      [
        "तां",
        -8.072274184914072
      ],
      [
        "▁सदा",
        -8.080873386071813
      ],
      [
        "ना",
        -8.083040841637201
      ],
      [
        "ामि",
        -8.085928615116238
      ],
      [
        "▁त",
        -8.089316007281312
      ],
      [
        "ैर",
        -8.092423273278254
      ],
      [
        "▁परम",
        -8.103184111508345
      ],
      [
        "भिः",
        -8.125492203453422
      ],
      [
        "प",
        -8.12999280279361
      ],
      [
        "▁लोक",
        -8.132520990184869
      ],
      [
        "▁तथैव",
        -8.135189449135389
      ],
      [
        "▁पुरा",
        -8.15578760099109
      ],
      [
        "स्ते",
        -8.176450581825353
      ],
      [
        "सु",
        -8.19123482069283
      ],
      [
        "▁सर्वं",
        -8.196347581338577
      ],
      [
        "▁त्वां",
        -8.210080381740038
      ],
      [
        "▁हत",
        -8.216739125069246
      ],
      [
        "स्त",
        -8.226192754083959
      ],
      [
        "▁ह्य",
        -8.227404466294416
      ],
      [
        "▁नृप",
        -8.228152914933546
      ],
      [
        "मिद",
        -8.231620707214482
      ],
      [
        "ेव",
        -8.23308398024097
      ],
      [
        "▁कृत",
        -8.234043227968801
      ],
      [
        "▁आ",
        -8.237272803704926
      ],
      [
        "क",
        -8.251347997797465
      ],
      [
        "▁नित्यं",
        -8.25286083742068
      ],
      [
        "ै",
        -8.258506157452814
      ],
      [
        "मब्रवीत्",
        -8.25973662231096
      ],
      [
        "▁ब्राह्मण",
        -8.263017587728378
      ],
      [
        "▁वर",
        -8.27071160146875
      ],
      [
        "▁एष",
        -8.270991339733854
      ],
      [
        "▁पश्य",
        -8.278820657863493
      ],
      [
        "ैव",
        -8.279216576191551
      ],
      [
        "▁तत्",
        -8.28465042414546
      ],
      [
        "▁पार्थ",
        -8.287732648272751
      ],
      [
        "▁राघव",
        -8.289857379145491
      ],
      [
        "ाव",
        -8.293786102895464
      ],
      [
        "▁राजान",
        -8.310539993447934
      ],
      [
        "▁परि",
        -8.32037785061436
      ],
      [
        "ाद",
        -8.32093199664422
      ],
      [
        "ेति",
        -8.322811266187014
      ],
      [
        "ता",
        -8.322868550099784
      ],
      [
        "▁द्रोण",
        -8.328864078460978
      ],
      [
        "ोऽपि",
        -8.331240387803529
      ],
      [
        "ाणां",
        -8.33330516519539
      ],
      [
        "स्तव",
        -8.33709818331051
      ],
      [
        "मा",
        -8.34535721108129
      ],
      [
        "▁शरैः",
        -8.350592010704055
      ],
      [
        "▁महा",
        -8.35137628724142
      ],
      [
        "वि",
        -8.359492937382953
      ],
      [
        "▁भरतर्षभ",
        -8.362736975670929
      ],
      [
        "▁राक्षस",
        -8.363783855972798
      ],
      [
        "मपि",
        -8.364368223916232
      ],
      [
        "ेत",
        -8.364697111301618
      ],
      [
        "▁वीर",
        -8.364703211299807
      ],
      [
        "नि",
        -8.369760438535216
      ],
      [
        "यं",
        -8.373452060701362
      ],
      [
        "▁दुर्योधन",
        -8.377692000868311
      ],
      [
        "▁पाण्डव",
        -8.377803635143472
      ],
      [
        "▁तौ",
        -8.378164078527956
      ],
      [
        "▁त्व",
        -8.380645118531383
      ],
      [
        "मिति",
        -8.38281769240989
      ],
      [
        "स्तत्र",
        -8.386061539774182
      ],
      [
        "न्त",
        -8.393215707038667
      ],
      [
        "▁धृतराष्ट्र",
        -8.41215926751862
      ],
      [
        "ाद्",
        -8.414403621482029
      ],
      [
        "सं",
        -8.422982359579763
      ],
      [
        "त्र",
        -8.426742238000497
      ],
      [
        "▁यस्य",
        -8.438780958379677
      ],
      [
        "षु",
        -8.451636758791697
      ],
      [
        "▁रथ",
        -8.452639260298657
      ],
      [
        "▁पितामह",
        -8.457470558728804
      ],
      [
        "▁पञ्च",
        -8.46800370452078
      ],
      [
        "▁लोके",
        -8.473547539265265
      ],
      [
        "्या",
        -8.484419315992312
      ],
      [
        "तु",
        -8.485198493261233
      ],
      [
        "▁राज",
        -8.485617714202714
      ],
      [
        "▁येन",
        -8.490802846852459
      ],
      [
        "स्तस्य",
        -8.494117459078723
      ],
      [
        "▁संशय",
        -8.495814747444559
      ],
      [
        "▁भवेत्",
        -8.501002240784093
      ],
      [
        "▁स्व",
        -8.503704427758318
      ],
      [
        "द्",
        -8.50865645067072
      ],
      [
        "▁कृष्ण",
        -8.509144415293544
      ],
      [
        "ह",
        -8.517943784250985
      ],
      [
        "वान्",
        -8.521238455786353
      ],
      [
        "▁तात",
        -8.523901668698805
      ],
      [
        "▁पार्थिव",
        -8.52644631718597
      ],
      [
        "थ",
        -8.533416353763318
      ],
      [
        "▁पते",
        -8.533735416388652
      ],
      [
        "▁ब्रह्म",
        -8.54090737354073
      ],
      [
        "▁यदा",
        -8.542764220865728
      ],
      [
        "▁राजेन्द्र",
        -8.543514741958525
      ],
      [
        "▁कर्ण",
        -8.552065043519882
      ],
      [
        "ज",
        -8.554502221939908
      ],
      [
        "▁महात्मना",
        -8.558095260204162
      ],
      [
        "▁महात्मनः",
        -8.560342784234296
      ],
      [
        "▁भीमसेन",
        -8.56051621545485
      ],
      [
        "▁भविष्यत",
        -8.562588279866763
      ],
      [
        "▁काम",
        -8.566277399588943
      ],
      [
        "तो",
        -8.567303989532856
      ],
      [
        "न्न",
        -8.569553710652963
      ],
      [
        "▁तद",
        -8.574494100449062
      ],
      [
        "स्त्व",
        -8.577949006497139
      ],
      [
        "▁महत्",
        -8.578730752027862
      ],
      [
        "प्र",
        -8.598404102051454
      ],
      [
        "▁भवत",
        -8.605941596143085
      ],
      [
        "▁प्राप्य",
        -8.616788816911827
      ],
      [
        "▁बभूव",
        -8.619925868173116
      ],
      [
        "▁चा",
        -8.619946592563673
      ],
      [
        "▁ना",
        -8.62248553411348
      ],
      [
        "▁शक्र",
        -8.622989199875814
      ],
      [
        "▁शृणु",
        -8.630805801989236
      ],
      [
        "▁परं",
        -8.631196342299786
      ],
      [
        "▁विशा",
        -8.642677747968182
      ],
      [
        "यामास",
        -8.645741327389594
      ],
      [
        "▁ददर्श",
        -8.64729878003132
      ],
      [
        "▁कौन्तेय",
        -8.647513320125706
      ],
      [
        "▁गत्वा",
        -8.648842036987965
      ],
      [
        "▁वेद",
        -8.652184164297594
      ],
      [
        "▁वाक्यं",
        -8.653989098279878
      ],
      [
        "▁वचः",
        -8.654144714332187
      ],
      [
        "ान्य",
        -8.656672157416358
      ],
      [
        "▁पर",
        -8.656860766058353
      ],
      [
        "▁विप्र",
        -8.66608917272421
      ],
      [
        "धर्म",
        -8.668199440883289
      ],
      [
        "▁संयुगे",
        -8.670895183257674
      ],
      [
        "▁सर्वश",
        -8.681363851605578
      ],
      [
        "▁नराधिप",
        -8.685591347708963
      ],
      [
        "से",
        -8.688072246640939
      ],
      [
        "▁भव",
        -8.689745876233431
      ],
      [
        "ात्मा",
        -8.692157235354362
      ],
      [
        "▁जगाम",
        -8.692893266883875
      ],
      [
        "ास्ते",
        -8.695308901311323
      ],
      [
        "▁युधि",
        -8.701033048761552
      ],
      [
        "▁भीम",
        -8.707449976015303
      ],
      [
        "▁क्रुद्ध",
        -8.709183204264683
      ],
      [
        "हि",
        -8.714097897531108
      ],
      [
        "▁बल",
        -8.71998732686487
      ],
      [
        "▁तद्",
        -8.727955911753558
      ],
      [
        "▁शर",
        -8.728511423314217
      ],
      [
        "▁तस्मिन्",
        -8.736424555381722
      ],
      [
        "▁दिव्य",
        -8.737379720404137
      ],
      [
        "ताम्",
        -8.740000141680815
      ],
      [
        "▁युद्धे",
        -8.749692989578968
      ],
      [
        "भि",
        -8.751529089031571
      ],
      [
        "▁द्विज",
        -8.752699478367852
      ],
      [
        "ल",
        -8.753639310081134
      ],
      [
        "▁नु",
        -8.764587311460362
      ],
      [
        "▁प्राप्त",
        -8.76512473466849
      ],
      [
        "श",
        -8.765696396710657
      ],
      [
        "द्य",
        -8.76797820180757
      ],
      [
        "▁कुरु",
        -8.771600853326987
      ],
      [
        "ोऽयं",
        -8.773428775628723
      ],
      [
        "▁सुत",
        -8.774381623183196
      ],
      [
        "▁महता",
        -8.777042424543907
      ],
      [
        "ोऽथ",
        -8.779972346102952
      ],
      [
        "▁प्रिय",
        -8.780977804718626
      ],
      [
        "▁दिश",
        -8.784827113375819
      ],
      [
        "वः",
        -8.787735813659733
      ],
      [
        "▁पर्वत",
        -8.791494699481438
      ],
      [
        "▁बहु",
        -8.794852720468317
      ],
      [
        "ाच्च",
        -8.799390930915507
      ],
      [
        "▁महाबाहो",
        -8.802067255451934
      ],
      [
        "▁महाबलः",
        -8.80342738699935
      ],
      [
        "▁शूर",
        -8.804291056293366
      ],
      [
        "▁सहसा",
        -8.808947652464525
      ],
      [
        "▁लक्ष्मण",
        -8.811456869383779
      ],
      [
        "च",
        -8.814345449527138
      ],
      [
        "देव",
        -8.82036242220315
      ],
      [
        "▁स्वर्ग",
        -8.820830579785994
      ],
      [
        "▁पुनर्",
        -8.822345159717475
      ],
      [
        "▁अहं",
        -8.82706123511079
      ],
      [
        "मुत्तम",
        -8.830268039592838
      ],
      [
        "▁फल",
        -8.83281632337944
      ],
      [
        "ाथ",
        -8.834230061755509
      ],
      [
        "▁गत",
        -8.834280328380316
      ],
      [
        "▁एक",
        -8.837759605576913
      ],
      [
        "▁पुरुष",
        -8.838002754164318
      ],
      [
        "▁पिता",
        -8.843330531531784
      ],
      [
        "▁सुख",
        -8.845396977759627
      ],
      [
        "ो;",
        -8.847327863827573
      ],
      [
        "▁सतत",
        -8.85458251646816
      ],
      [
        "न्ते",
        -8.85579431474363
      ],
      [
        "ेह",
        -8.85876025583269
      ],
      [
        "▁काल",
        -8.859438203276389
      ],
      [
        "स्त्वं",
        -8.85976798397082
      ],
      [
        "ेत्",
        -8.869887057768734
      ],
      [
        "▁भार्या",
        -8.877182936120235
      ],
      [
        "▁युधिष्ठिरः",
        -8.877727696437955
      ],
      [
        "▁पितर",
        -8.880347873069045
      ],
      [
        "▁सर्वा",
        -8.881549553932572
      ],
      [
        "वत्",
        -8.884801800854373
      ],
      [
        "▁दश",
        -8.885161304463423
      ],
      [
        "▁समन्ततः",
        -8.886522811136334
      ],
      [
        "▁कर्मणा",
        -8.893930432031958
      ],
      [
        "▁वने",
        -8.894991725038594
      ],
      [
        "▁गुरु",
        -8.900356182398031
      ],
      [
        "मासाद्य",
        -8.902941035983485
      ],
      [
        "ार्थं",
        -8.903331995547564
      ],
      [
        "ेयं",
        -8.903870730635472
      ],
      [
        "▁स्थित",
        -8.905475686545664
      ],
      [
        "ाभि",
        -8.907839619424916
      ],
      [
        "ू",
        -8.909228107609287
      ],
      [
        "▁पूर्वं",
        -8.90974517005359
      ],
      [
        "▁वन",
        -8.910327396866155
      ],
      [
        "ान्न",
        -8.912711547279027
      ],
      [
        "▁निहत",
        -8.913175297368234
      ],
      [
        "▁वीर्यवान्",
        -8.913342615868663
      ],
      [
        "ाभ्यां",
        -8.914947179766942
      ],
      [
        "मभि",
        -8.915721939719385
      ],
      [
        "▁महातेजा",
        -8.918159947364575
      ],
      [
        "▁व्य",
        -8.919049024409786
      ],
      [
        "ीं",
        -8.921033235672816
      ],
      [
        "▁रावण",
        -8.92409807182857
      ],
      [
        "▁यद",
        -8.925832363384231
      ],
      [
        "▁गच्छ",
        -8.928147058457833
      ],
      [
        "गतः",
        -8.930400484740836
      ],
      [
        "भिर्",
        -8.931524068899696
      ],
      [
        "व्य",
        -8.935791686604105
      ],
      [
        "▁श्रुत",
        -8.937805916161622
      ],
      [
        "▁सूत",
        -8.940214840734447
      ],
      [
        "▁दुःख",
        -8.940388779349696
      ],
      [
        "▁तम",
        -8.943184579640949
      ],
      [
        "▁महारथः",
        -8.947383237015787
      ],
      [
        "▁विद्यते",
        -8.951535151393045
      ],
      [
        "मनु",
        -8.952938164206323
      ],
      [
        "ोप",
        -8.95803886775009
      ],
      [
        "▁मन्ये",
        -8.959525333092435
      ],
      [
        "ग",
        -8.960907422586295
      ],
      [
        "▁एते",
        -8.96257474587821
      ],
      [
        "बल",
        -8.964433450749604
      ],
      [
        "▁धर्मात्मा",
        -8.96704049939746
      ],
      [
        "ार्थ",
        -8.970686899471872
      ],
      [
        "▁सोऽ",
        -8.971272237539338
      ],
      [
        "▁इदं",
        -8.973645368454939
      ],
      [
        "▁वयं",
        -8.976704323496161
      ],
      [
        "मान",
        -8.978710054568037
      ],
      [
        "▁पाप",
        -8.979351083526405
      ],
      [
        "▁तपसा",
        -8.980665237395739
      ],
      [
        "योः",
        -8.983088022225441
      ],
      [
        "▁काले",
        -8.988964428616125
      ],
      [
        "▁पावक",
        -8.992992206767866
      ],
      [
        "▁सर्वेषा",
        -8.993072805921972
      ],
      [
        "▁वानर",
        -8.994762482717956
      ],
      [
        "त्वं",
        -8.9952346471595
      ],
      [
        "▁पूर्व",
        -9.000536620481924
      ],
      [
        "▁भ्रातर",
        -9.003723159761133
      ],
      [
        "▁यज्ञ",
        -9.004356048697481
      ],
      [
        "▁तान्",
        -9.004945542523375
      ],
      [
        "▁क्षिप्र",
        -9.006684436148035
      ],
      [
        "▁नास्ति",
        -9.007131012163391
      ],
      [
        "कृत",
        -9.007135075632192
      ],
      [
        "वर",
        -9.012126927656851
      ],
      [
        "▁रामस्य",
        -9.014098853648369
      ],
      [
        "रूप",
        -9.014583292175695
      ],
      [
        "▁हत्वा",
        -9.01715014116843
      ],
      [
        "गुण",
        -9.01899510365216
      ],
      [
        "▁धृष्टद्युम्न",
        -9.020425268996403
      ],
      [
        "▁राज्यं",
        -9.021561205316717
      ],
      [
        "▁मनसा",
        -9.02404325395465
      ],
      [
        "▁संग्रामे",
        -9.026111680868166
      ],
      [
        "▁साधु",
        -9.027095468689264
      ],
      [
        "▁नैव",
        -9.029247263420618
      ],
      [
        "▁देवा",
        -9.029612518940866
      ],
      [
        "▁भवान्",
        -9.034139842733888
      ],
      [
        "ये",
        -9.035326261864766
      ],
      [
        "▁मुनि",
        -9.036031078056372
      ],
      [
        "▁कृतं",
        -9.03946391741799
      ],
      [
        "नु",
        -9.043178957401254
      ],
      [
        "िता",
        -9.043679560481795
      ],
      [
        "▁तस्या",
        -9.044120396738844
      ],
      [
        "▁रामं",
        -9.046648719542524
      ],
      [
        "▁पश्याम",
        -9.046912821031563
      ],
      [
        "▁श्रेष्ठ",
        -9.047965974740972
      ],
      [
        "▁महात्मान",
        -9.048471161169092
      ],
      [
        "रथ",
        -9.050189157942782
      ],
      [
        "▁परस्पर",
        -9.05405321092972
      ],
      [
        "यो",
        -9.060147983802036
      ],
      [
        "▁तत",
        -9.061670999039208
      ],
      [
        "▁सीता",
        -9.061773856576153
      ],
      [
        "▁सुग्रीव",
        -9.063406276921729
      ],
      [
        "▁गुण",
        -9.065260175344116
      ],
      [
        "स्तं",
        -9.069230435823412
      ],
      [
        "ाहं",
        -9.071459846022776
      ],
      [
        "▁भूत",
        -9.07181224703457
      ],
      [
        "▁सत्यं",
        -9.076507846034
      ],
      [
        "मथ",
        -9.078962035603794
      ],
      [
        "▁चाप्य",
        -9.080423069273015
      ],
      [
        "सम",
        -9.081642243681998
      ],
      [
        "▁राजन्न",
        -9.082596612378245
      ],
      [
        "▁विव्याध",
        -9.084497850138709
      ],
      [
        "ोवाच",
        -9.08564763442054
      ],
      [
        "▁रामो",
        -9.087295055655511
      ],
      [
        "स्त्वया",
        -9.087965334718234
      ],
      [
        "▁अद्य",
        -9.08954608450863
      ],
      [
        "ेष्व",
        -9.091099713759997
      ],
      [
        "▁सहस्रशः",
        -9.09316366616682
      ],
      [
        "▁यत्",
        -9.094605116090891
      ],
      [
        "क्ष",
        -9.097274583476434
      ],
      [
        "▁प्रभो",
        -9.101529243932688
      ],
      [
        "▁ब्रूह",
        -9.102375202367464
      ],
      [
        "▁को",
        -9.111877908812028
      ],
      [
        "▁मही",
        -9.113942331092533
      ],
      [
        "▁शुभ",
        -9.116740001564004
      ],
      [
        "ा;",
        -9.119261576612132
      ],
      [
        "▁पुरुषर्षभ",
        -9.11994683141656
      ],
      [
        "▁संख्ये",
        -9.120154257532608
      ],
      [
        "▁स्मृत",
        -9.121541718631288
      ],
      [
        "▁समासाद्य",
        -9.123261543991834
      ],
      [
        "▁एवमुक्त्वा",
        -9.123905350854107
      ],
      [
        "▁बलं",
        -9.12419806367069
      ],
      [
        "▁सप्त",
        -9.124258533665174
      ],
      [
        "ाद्य",
        -9.12479168237826
      ],
      [
        "▁भूत्वा",
        -9.125849647609009
      ],
      [
        "च्च",
        -9.12661985769343
      ],
      [
        "मुप",
        -9.12756257407822
      ],
      [
        "▁क",
        -9.133856871589792
      ],
      [
        "▁मनः",
        -9.13498252521207
      ],
      [
        "▁धर्मं",
        -9.1372317188858
      ],
      [
        "▁महारथ",
        -9.142657889884925
      ],
      [
        "्वा",
        -9.142902173901312
      ],
      [
        "▁एत",
        -9.14373741135476
      ],
      [
        "▁नो",
        -9.144228655547185
      ],
      [
        "▁धनंजय",
        -9.146088023474729
      ],
      [
        "वापि",
        -9.1468293460532
      ],
      [
        "ोऽस्मि",
        -9.147228127073046
      ],
      [
        "ऽ",
        -9.14911318803376
      ],
      [
        "भूत",
        -9.150058838003432
      ],
      [
        "▁वासुदेव",
        -9.151139552552468
      ],
      [
        "स्थ",
        -9.151381359962766
      ],
      [
        "कः",
        -9.155014139711495
      ],
      [
        "▁कथंचन",
        -9.155796481279726
      ],
      [
        "राज",
        -9.158633511854308
      ],
      [
        "▁जय",
        -9.158943088626843
      ],
      [
        "▁भद्र",
        -9.160563926136533
      ],
      [
        "▁पाण्डवानां",
        -9.161367842124916
      ],
      [
        "गण",
        -9.161925018593358
      ],
      [
        "▁पाण्डवः",
        -9.1631522061488
      ],
      [
        "▁क्रोध",
        -9.164308771645254
      ],
      [
        "स्ततः",
        -9.166681092398498
      ],
      [
        "▁पाण्डवाः",
        -9.170420771276255
      ],
      [
        "▁स्वयं",
        -9.172298007065104
      ],
      [
        "कर्म",
        -9.1728273663798
      ],
      [
        "▁प्रत्य",
        -9.175050589525323
      ],
      [
        "▁पुत्रं",
        -9.175706858384236
      ],
      [
        "ण",
        -9.177458739348204
      ],
      [
        "स्ततो",
        -9.17990923966228
      ],
      [
        "▁कार्यं",
        -9.182120021256782
      ],
      [
        "▁गदा",
        -9.182842515642385
      ],
      [
        "▁भरत",
        -9.184210846929744
      ],
      [
        "स्तात",
        -9.184941058493802
      ],
      [
        "▁पुण्य",
        -9.186206439420616
      ],
      [
        "▁नाग",
        -9.1865342405686
      ],
      [
        "▁यच्च",
        -9.18659101588478
      ],
      [
        "▁उप",
        -9.190245756210524
      ],
      [
        "▁शोक",
        -9.190538315860788
      ],
      [
        "▁महाबल",
        -9.1912537216482
      ],
      [
        "▁अय",
        -9.196081841374715
      ],
      [
        "▁समा",
        -9.197778287390925
      ],
      [
        "महा",
        -9.19843398946666
      ],
      [
        "मयि",
        -9.199081261492726
      ],
      [
        "वरः",
        -9.200242941525936
      ],
      [
        "▁त्वयि",
        -9.200433182826794
      ],
      [
        "ुवाच",
        -9.201069578784551
      ],
      [
        "▁धार्तराष्ट्र",
        -9.2019757982982
      ],
      [
        "▁पुरुषव्याघ्र",
        -9.203105640956068
      ],
      [
        "▁गति",
        -9.203856598032528
      ],
      [
        "▁सनातन",
        -9.205026391927788
      ],
      [
        "▁सहित",
        -9.205652347933151
      ],
      [
        "▁मारिष",
        -9.20618333155902
      ],
      [
        "▁सत्य",
        -9.210765755982372
      ],
      [
        "▁सूर्य",
        -9.21102006346472
      ],
      [
        "▁कौरव",
        -9.211566804315332
      ],
      [
        "▁भुवि",
        -9.212842693016816
      ],
      [
        "▁ततस्त",
        -9.21405426142704
      ],
      [
        "▁जीव",
        -9.214177499473006
      ],
      [
        "▁भगवान्",
        -9.215396922767331
      ],
      [
        "मिह",
        -9.223799692982263
      ],
      [
        "▁पुनर",
        -9.224994989101797
      ],
      [
        "▁जनार्दन",
        -9.225195679218292
      ],
      [
        "▁रामः",
        -9.226207650961548
      ],
      [
        "ाशु",
        -9.227690204062649
      ],
      [
        "स्तेन",
        -9.228892460671206
      ],
      [
        "▁प्राण",
        -9.230850551672829
      ],
      [
        "▁नर",
        -9.235171219299602
      ],
      [
        "▁भृश",
        -9.23597723542114
      ],
      [
        "▁सहदेव",
        -9.237422738718257
      ],
      [
        "▁महाबाहु",
        -9.24063171052208
      ],
      [
        "ीति",
        -9.240982485333198
      ],
      [
        "▁मानुष",
        -9.241911014755638
      ],
      [
        "रुवाच",
        -9.24256750516976
      ],
      [
        "ाम",
        -9.242892346594171
      ],
      [
        "▁चास्य",
        -9.24426718586994
      ],
      [
        "वर्ण",
        -9.246835311372228
      ],
      [
        "यां",
        -9.249064668382388
      ],
      [
        "िदं",
        -9.24915173655072
      ],
      [
        "▁प्रतापवान्",
        -9.24969330052881
      ],
      [
        "ुः",
        -9.249850820815286
      ],
      [
        "मास्थाय",
        -9.249879370260532
      ],
      [
        "ेऽ",
        -9.251051006115311
      ],
      [
        "महं",
        -9.25147352039945
      ],
      [
        "▁प्रजा",
        -9.255990994593509
      ],
      [
        "▁महान्",
        -9.256126581772012
      ],
      [
        "▁सार्धं",
        -9.25746211377394
      ],
      [
        "▁काञ्चन",
        -9.257654766818858
      ],
      [
        "ैरिव",
        -9.258626310023583
      ],
      [
        "▁पृथिवी",
        -9.260012708828071
      ],
      [
        "▁चक्रे",
        -9.262410400952692
      ],
      [
        "▁जात",
        -9.266786751302362
      ],
      [
        "▁ज्ञान",
        -9.266958429053886
      ],
      [
        "पुत्र",
        -9.267223872762774
      ],
      [
        "्व",
        -9.267650586789426
      ],
      [
        "▁गज",
        -9.268531595367897
      ],
      [
        "▁नरः",
        -9.26980552423174
      ],
      [
        "▁अपि",
        -9.270973063550452
      ],
      [
        "ायुध",
        -9.271733010870102
      ],
      [
        "▁कन्या",
        -9.272166579730484
      ],
      [
        "▁पश्यत",
        -9.276096725814778
      ],
      [
        "▁मन्त्र",
        -9.279642473542584
      ],
      [
        "▁कौरव्य",
        -9.280238007655427
      ],
      [
        "काल",
        -9.280326331421811
      ],
      [
        "▁क्रुद्धो",
        -9.280483388391067
      ],
      [
        "यन्",
        -9.281726915080926
      ],
      [
        "▁युद्धं",
        -9.282805291290153
      ],
      [
        "▁प्रभुः",
        -9.284229787569624
      ],
      [
        "▁देवी",
        -9.285931840097614
      ],
      [
        "▁अर्जुन",
        -9.291039197726146
      ],
      [
        "▁प्रत्युवाच",
        -9.293224067323706
      ],
      [
        "वेग",
        -9.293292376788964
      ],
      [
        "▁धर्मज्ञ",
        -9.293495088311245
      ],
      [
        "▁भूमौ",
        -9.29508464018971
      ],
      [
        "ाविव",
        -9.29759787456937
      ],
      [
        "त्य",
        -9.30085597027076
      ],
      [
        "▁तेजसा",
        -9.304012385480103
      ],
      [
        "वा",
        -9.304060015211313
      ],
      [
        "▁रथं",
        -9.307067708416984
      ],
      [
        "▁भय",
        -9.309138733639866
      ],
      [
        "▁ततोऽ",
        -9.309504269055406
      ],
      [
        "▁वासव",
        -9.309622587709368
      ],
      [
        "▁धन",
        -9.310577714974976
      ],
      [
        "ोत्तम",
        -9.310722873546007
      ],
      [
        "▁जन",
        -9.313576072285322
      ],
      [
        "▁शैल",
        -9.314108620110703
      ],
      [
        "▁ता",
        -9.31568236124405
      ],
      [
        "जन",
        -9.315709056324874
      ],
      [
        "▁घोरं",
        -9.315917052261224
      ],
      [
        "▁पुत्रो",
        -9.316506722118897
      ],
      [
        "सुत",
        -9.319009685142596
      ],
      [
        "ोऽसि",
        -9.321886911174524
      ],
      [
        "▁ययौ",
        -9.32312231048085
      ],
      [
        "▁महारथा",
        -9.323414203620692
      ],
      [
        "▁शत",
        -9.32404686429297
      ],
      [
        "▁कार्य",
        -9.324612012836884
      ],
      [
        "▁कृप",
        -9.327207172472155
      ],
      [
        "च्छ",
        -9.32789461175236
      ],
      [
        "हं",
        -9.328199581003457
      ],
      [
        "▁क्व",
        -9.329840425047106
      ],
      [
        "▁मनो",
        -9.333380030724689
      ],
      [
        "▁ब्राह्मणा",
        -9.33388068688494
      ],
      [
        "▁कर्णं",
        -9.334524439033093
      ],
      [
        "▁भृशं",
        -9.33512714727789
      ],
      [
        "▁महेष्वास",
        -9.33521498316883
      ],
      [
        "▁राज्ञा",
        -9.336091384210713
      ],
      [
        "▁शूरा",
        -9.339816981203231
      ],
      [
        "▁या",
        -9.340321945958852
      ],
      [
        "ैक",
        -9.34104103043662
      ],
      [
        "▁मृग",
        -9.34251122270173
      ],
      [
        "वै",
        -9.345953510866424
      ],
      [
        "वन",
        -9.346709907528844
      ],
      [
        "ध",
        -9.346824201730094
      ],
      [
        "▁तीर्थ",
        -9.34948994659586
      ],
      [
        "▁माधव",
        -9.350008079230868
      ],
      [
        "प्य",
        -9.35083640561504
      ],
      [
        "यित्वा",
        -9.3516403012631
      ],
      [
        "▁विपुल",
        -9.356879124581504
      ],
      [
        "प्रिय",
        -9.35699463080296
      ],
      [
        "ोऽभवत्",
        -9.357037242144058
      ],
      [
        "▁दृश्यते",
        -9.35856986323518
      ],
      [
        "▁त्वा",
        -9.35877522248228
      ],
      [
        "न्य",
        -9.360355600160416
      ],
      [
        "▁दिष्ट्या",
        -9.361229679812476
      ],
      [
        "▁सिंह",
        -9.361243482763932
      ],
      [
        "▁कारण",
        -9.36236969589322
      ],
      [
        "ास्य",
        -9.362632969257138
      ],
      [
        "ेद",
        -9.364683106465266
      ],
      [
        "▁सहिता",
        -9.36497316436969
      ],
      [
        "▁परंतप",
        -9.367933598050604
      ],
      [
        "मुच्यते",
        -9.369856633383415
      ],
      [
        "▁हय",
        -9.370439431958506
      ],
      [
        "▁सुखं",
        -9.371356237582596
      ],
      [
        "▁धर्मो",
        -9.372348492265308
      ],
      [
        "ैरपि",
        -9.3731192831825
      ],
      [
        "▁काकुत्स्थ",
        -9.373515749041983
      ],
      [
        "▁नारद",
        -9.376911101856647
      ],
      [
        "भाव",
        -9.377986456878537
      ],
      [
        "▁बाल",
        -9.378734983653782
      ],
      [
        "मह",
        -9.37877590425051
      ],
      [
        "ाप",
        -9.381370908607558
      ],
      [
        "▁हरि",
        -9.38353228664389
      ],
      [
        "ाह",
        -9.384043398135
      ],
      [
        "तेषु",
        -9.389229463013784
      ],
      [
        "वनं",
        -9.389406450031418
      ],
      [
        "▁नदी",
        -9.394629906134238
      ],
      [
        "▁वध",
        -9.395907701319258
      ],
      [
        "▁अत्र",
        -9.396640027848752
      ],
      [
        "भवत्",
        -9.400320415670675
      ],
      [
        "▁सागर",
        -9.404660946881014
      ],
      [
        "का",
        -9.405734045195365
      ],
      [
        "▁चिच्छेद",
        -9.405844953356697
      ],
      [
        "▁वृकोदर",
        -9.407089764448088
      ],
      [
        "▁सर्वभूत",
        -9.407630892381064
      ],
      [
        "ेन्द्र",
        -9.409271162943242
      ],
      [
        "▁सर्वतः",
        -9.410375313306234
      ],
      [
        "▁तस्मै",
        -9.410501909561894
      ],
      [
        "िष्यति",
        -9.410567539598969
      ],
      [
        "▁ज्ञात्वा",
        -9.41149568101699
      ],
      [
        "भव",
        -9.411763943564733
      ],
      [
        "▁युद्ध",
        -9.41229797990517
      ],
      [
        "▁केशव",
        -9.412430941612056
      ],
      [
        "णा",
        -9.41474312710598
      ],
      [
        "▁शस्त्र",
        -9.414904018867006
      ],
      [
        "▁पृथिवीं",
        -9.41555433691088
      ],
      [
        "▁जनमेजय",
        -9.416302534734143
      ],
      [
        "▁नकुल",
        -9.416439618804132
      ],
      [
        "▁नित्य",
        -9.416555248045997
      ],
      [
        "ानाम",
        -9.419597235102206
      ],
      [
        "▁विद्धि",
        -9.42086008338213
      ],
      [
        "▁धर्मराज",
        -9.42215435863579
      ],
      [
        "मद्य",
        -9.42246775001516
      ],
      [
        "▁गच्छत",
        -9.424061693323656
      ],
      [
        "नं",
        -9.424598302914422
      ],
      [
        "▁ददौ",
        -9.426146742400014
      ],
      [
        "श्रेष्ठ",
        -9.426521845728525
      ],
      [
        "▁संप्र",
        -9.427956166395589
      ],
      [
        "▁अत",
        -9.429488452647028
      ],
      [
        "▁पतित",
        -9.429951023819072
      ],
      [
        "मरिंदम",
        -9.43024507151392
      ],
      [
        "ष",
        -9.432106369488151
      ],
      [
        "▁स्थिता",
        -9.433442182366653
      ],
      [
        "▁तानि",
        -9.434305122237262
      ],
      [
        "▁तस्माद्",
        -9.435517912413315
      ],
      [
        "▁पाण्डवा",
        -9.436101475900346
      ],
      [
        "लक्षण",
        -9.436714210348882
      ],
      [
        "ङ्ग",
        -9.43998839273641
      ],
      [
        "▁धनंजयः",
        -9.441203765068533
      ],
      [
        "▁मध्ये",
        -9.441508948062252
      ],
      [
        "श्व",
        -9.44207069249277
      ],
      [
        "यज्ञ",
        -9.442232565675583
      ],
      [
        "▁विदुर",
        -9.442282015294175
      ],
      [
        "▁तिष्ठ",
        -9.442303168744449
      ],
      [
        "▁नूनं",
        -9.442832184328989
      ],
      [
        "िभिः",
        -9.444149921003769
      ],
      [
        "भय",
        -9.447127002106658
      ],
      [
        "▁क्षत्रिय",
        -9.448120280961357
      ],
      [
        "▁कुशल",
        -9.44861728899718
      ],
      [
        "▁शत्रु",
        -9.449798673973902
      ],
      [
        "ेभ्यो",
        -9.45481946973649
      ],
      [
        "▁धर्मः",
        -9.45559361474236
      ],
      [
        "स्",
        -9.455987890328728
      ],
      [
        "▁रामेण",
        -9.459251156206186
      ],
      [
        "▁वज्र",
        -9.459510028922503
      ],
      [
        "स्येव",
        -9.4599678897397
      ],
      [
        "ान्स",
        -9.461308268450429
      ],
      [
        "▁यद्",
        -9.461742701476922
      ],
      [
        "▁फलं",
        -9.461925549959108
      ],
      [
        "फलं",
        -9.462267176204652
      ],
      [
        "▁नरव्याघ्र",
        -9.463902677576897
      ],
      [
        "▁ततस्ते",
        -9.4641870905564
      ],
      [
        "नां",
        -9.464682207925838
      ],
      [
        "▁प्रजाः",
        -9.467265944366906
      ],
      [
        "फल",
        -9.467280852975328
      ],
      [
        "▁किम",
        -9.468103683910895
      ],
      [
        "▁शरीर",
        -9.469597032431237
      ],
      [
        "▁किल",
        -9.47143023855927
      ],
      [
        "▁शङ्ख",
        -9.474911008025126
      ],
      [
        "▁त्यक्त्वा",
        -9.475496275845412
      ],
      [
        "▁घोर",
        -9.476370076373476
      ],
      [
        "▁दत्त्वा",
        -9.476700099237974
      ],
      [
        "भ्य",
        -9.477147021852218
      ],
      [
        "गत",
        -9.477358831917863
      ],
      [
        "▁इह",
        -9.479721096297816
      ],
      [
        "ात्म",
        -9.48193638179376
      ],
      [
        "ध्वज",
        -9.482119101239505
      ],
      [
        "▁चकार",
        -9.483492130491523
      ],
      [
        "▁धर्मेण",
        -9.483698173916675
      ],
      [
        "त्व",
        -9.484163047514176
      ],
      [
        "वध",
        -9.486240907768629
      ],
      [
        "धन",
        -9.487828416180651
      ],
      [
        "▁तच्च",
        -9.487946847869903
      ],
      [
        "कर्ण",
        -9.488986998448812
      ],
      [
        "▁विभो",
        -9.49096011900977
      ],
      [
        "▁स्थान",
        -9.492693204116344
      ],
      [
        "मुख",
        -9.493080736102154
      ],
      [
        "▁जीवित",
        -9.493902487439293
      ],
      [
        "▁अभि",
        -9.49429785992595
      ],
      [
        "कृतं",
        -9.494994526383511
      ],
      [
        "▁भूताना",
        -9.495170730573456
      ],
      [
        "ष्ट",
        -9.498745095306584
      ],
      [
        "▁पपात",
        -9.499084986584146
      ],
      [
        "▁वर्तते",
        -9.499439024790917
      ],
      [
        "▁स्त्री",
        -9.502460016028252
      ],
      [
        "▁प्रीति",
        -9.50551250486392
      ],
      [
        "▁केन",
        -9.50572715591955
      ],
      [
        "▁भयं",
        -9.506866747599052
      ],
      [
        "▁धीमतः",
        -9.511309070508144
      ],
      [
        "▁विश्वामित्र",
        -9.511741070035448
      ],
      [
        "▁शब्द",
        -9.512175047918909
      ],
      [
        "▁पति",
        -9.513176581961206
      ],
      [
        "▁गृह",
        -9.513794402126353
      ],
      [
        "▁बाण",
        -9.515195078720971
      ],
      [
        "वर्ष",
        -9.515211245131372
      ],
      [
        "▁देवाः",
        -9.51545298325408
      ],
      [
        "िनः",
        -9.515635164828836
      ],
      [
        "▁वैदेही",
        -9.516956966036371
      ],
      [
        "ोऽहं",
        -9.518378558441558
      ],
      [
        "मात्मनः",
        -9.5200796922305
      ],
      [
        "मादाय",
        -9.521380032686078
      ],
      [
        "▁सेना",
        -9.52412502017602
      ],
      [
        "▁सभा",
        -9.524498447087192
      ],
      [
        "▁बुद्धि",
        -9.526665511925074
      ],
      [
        "तदा",
        -9.52750393263116
      ],
      [
        "▁गिरि",
        -9.527655766396723
      ],
      [
        "▁वाक्य",
        -9.530203256974314
      ],
      [
        "▁तच्छ्रुत्वा",
        -9.53156397921538
      ],
      [
        "▁देह",
        -9.53310485368159
      ],
      [
        "सुख",
        -9.53845329153502
      ],
      [
        "▁योग",
        -9.539584178728315
      ],
      [
        "▁जनाः",
        -9.540161245803676
      ],
      [
        "▁महात्मा",
        -9.54029105848292
      ],
      [
        "▁प्राह",
        -9.541448890363524
      ],
      [
        "▁कुल",
        -9.54378928186726
      ],
      [
        "तर",
        -9.543799423301897
      ],
      [
        "▁विभीषण",
        -9.54423485145636
      ],
      [
        "▁दुःखं",
        -9.545737197124796
      ],
      [
        "▁अन",
        -9.54603363348475
      ],
      [
        "स्मि",
        -9.546857446734634
      ],
      [
        "▁श्रीमान्",
        -9.547795742058454
      ],
      [
        "▁सर्वलोक",
        -9.547976699369348
      ],
      [
        "▁तस्मात्",
        -9.549974703050424
      ],
      [
        "▁सौम्य",
        -9.550365796043549
      ],
      [
        "ाश्व",
        -9.552386333560824
      ],
      [
        "मुख्य",
        -9.553132889186848
      ],
      [
        "▁महाप्राज्ञ",
        -9.553540128011974
      ],
      [
        "परि",
        -9.554026428335389
      ],
      [
        "ैनं",
        -9.555802955495338
      ],
      [
        "यान्ति",
        -9.557218179042865
      ],
      [
        "▁विविध",
        -9.559946496790356
      ],
      [
        "दोष",
        -9.560136358757823
      ],
      [
        "ाग्र",
        -9.56143194366215
      ],
      [
        "▁रूपं",
        -9.5628452965626
      ],
      [
        "▁भवता",
        -9.563755662115952
      ],
      [
        "▁सुर",
        -9.564343928504591
      ],
      [
        "सर्व",
        -9.564461487094388
      ],
      [
        "▁चिर",
        -9.564835154206737
      ],
      [
        "यत्",
        -9.566612373624176
      ],
      [
        "▁इन्द्र",
        -9.568072389984875
      ],
      [
        "▁भीष्मं",
        -9.56895771202658
      ],
      [
        "काले",
        -9.570228525427368
      ],
      [
        "चर",
        -9.570358693871702
      ],
      [
        "▁वेगेन",
        -9.57258783631811
      ],
      [
        "भिर",
        -9.573028677718646
      ],
      [
        "▁कालेन",
        -9.574195546362551
      ],
      [
        "▁नाना",
        -9.574464937089322
      ],
      [
        "▁यम",
        -9.578240130253617
      ],
      [
        "▁शल्य",
        -9.578471785942078
      ],
      [
        "दा",
        -9.579963071294614
      ],
      [
        "स्थितः",
        -9.58002083281987
      ],
      [
        "र्थ",
        -9.580347360462714
      ],
      [
        "व्रत",
        -9.581350756298145
      ],
      [
        "ेष",
        -9.581358618282248
      ],
      [
        "▁गङ्गा",
        -9.583191319883364
      ],
      [
        "▁जघान",
        -9.583509594531574
      ],
      [
        "मध्ये",
        -9.58492304906228
      ],
      [
        "▁शुचि",
        -9.585972056333368
      ],
      [
        "्यो",
        -9.58722346029164
      ],
      [
        "नम्",
        -9.587928813621875
      ],
      [
        "ोपम",
        -9.588098603985811
      ],
      [
        "ानु",
        -9.589691709409776
      ],
      [
        "ुर्",
        -9.589939513796931
      ],
      [
        "पर",
        -9.590899076621382
      ],
      [
        "▁दण्ड",
        -9.591713265607275
      ],
      [
        "▁कर्णो",
        -9.59259966980446
      ],
      [
        "▁रण",
        -9.592725915777589
      ],
      [
        "▁भूतान",
        -9.596916521883546
      ],
      [
        "▁शुभा",
        -9.5975356641877
      ],
      [
        "शत",
        -9.60031845302554
      ],
      [
        "▁विदु",
        -9.600536105445691
      ],
      [
        "▁कल्याण",
        -9.600547620764662
      ],
      [
        "ेदं",
        -9.602097598015462
      ],
      [
        "▁कथ",
        -9.602258506754731
      ],
      [
        "े;",
        -9.60317869726823
      ],
      [
        "▁वो",
        -9.605670741739884
      ],
      [
        "हस्त",
        -9.606351513531235
      ],
      [
        "▁बुद्ध्या",
        -9.607847680706032
      ],
      [
        "वेद",
        -9.608125078012748
      ],
      [
        "ाञ्",
        -9.610031086910302
      ],
      [
        "▁सोम",
        -9.611823934501032
      ],
      [
        "श्चाप",
        -9.612721503882709
      ],
      [
        "प्रति",
        -9.613887375608387
      ],
      [
        "▁दुर्धर्ष",
        -9.614289600784424
      ],
      [
        "गताः",
        -9.614521259812362
      ],
      [
        "▁राज्ञः",
        -9.616264519005895
      ],
      [
        "▁दुर्योधनो",
        -9.61658170784047
      ],
      [
        "▁भ्राता",
        -9.616878482540333
      ],
      [
        "िति",
        -9.61861274129874
      ],
      [
        "▁तन्मे",
        -9.619720197191718
      ],
      [
        "काम",
        -9.61997895591065
      ],
      [
        "▁गन्धर्व",
        -9.621068957002084
      ],
      [
        "ादाय",
        -9.621568172909868
      ],
      [
        "▁व्यास",
        -9.621676886279154
      ],
      [
        "ेभ्यः",
        -9.622072157995731
      ],
      [
        "▁तपो",
        -9.623325920262417
      ],
      [
        "ांश्चैव",
        -9.623779565060318
      ],
      [
        "▁मृत्यु",
        -9.62394096443354
      ],
      [
        "▁पुनरेव",
        -9.62395046789676
      ],
      [
        "▁जग्राह",
        -9.623982114804322
      ],
      [
        "▁महायशाः",
        -9.625633801901746
      ],
      [
        "योग",
        -9.62597001838394
      ],
      [
        "▁सर्वान्",
        -9.62608179059037
      ],
      [
        "वर्तत",
        -9.626650932892671
      ],
      [
        "▁स्यात्",
        -9.628070012077227
      ],
      [
        "▁मति",
        -9.628275369770492
      ],
      [
        "▁कस्य",
        -9.628840534523151
      ],
      [
        "ानपि",
        -9.629348700497022
      ],
      [
        "▁देश",
        -9.63041092747802
      ],
      [
        "ितः",
        -9.632607451078217
      ],
      [
        "▁निर्",
        -9.633366888872075
      ],
      [
        "▁प्रविश्य",
        -9.633556109330456
      ],
      [
        "▁कर्तव्य",
        -9.634408065938512
      ],
      [
        "▁जल",
        -9.634436899633451
      ],
      [
        "स्तथैव",
        -9.634598336382986
      ],
      [
        "▁तस्माद",
        -9.636113554277353
      ],
      [
        "▁राज्ञो",
        -9.63616038115295
      ],
      [
        "भ",
        -9.636655497001907
      ],
      [
        "▁शरण",
        -9.636790859873733
      ],
      [
        "▁सूतपुत्र",
        -9.637178788446334
      ],
      [
        "ज्ञान",
        -9.639455285528443
      ],
      [
        "▁वाचा",
        -9.639793463805274
      ],
      [
        "दान",
        -9.641101774374436
      ],
      [
        "▁पुरस्कृत्य",
        -9.644170366385826
      ],
      [
        "▁शीघ्रं",
        -9.645897328466582
      ],
      [
        "▁तत्सर्व",
        -9.646937130042875
      ],
      [
        "मिमं",
        -9.649481296348409
      ],
      [
        "▁का",
        -9.652803018004086
      ],
      [
        "ध्वं",
        -9.65301426662154
      ],
      [
        "▁इत्युक्त्वा",
        -9.653113070378906
      ],
      [
        "▁वक्ष्याम",
        -9.653680905714603
      ],
      [
        "▁येषा",
        -9.65397591836588
      ],
      [
        "▁अनु",
        -9.655231160985863
      ],
      [
        "▁किंचित्",
        -9.65572124001341
      ],
      [
        "िरे",
        -9.655962008182296
      ],
      [
        "▁देवता",
        -9.656004326308956
      ],
      [
        "वचन",
        -9.656886889034716
      ],
      [
        "▁भ्रातृभि",
        -9.658435207386315
      ],
      [
        "मति",
        -9.658575151543364
      ],
      [
        "रिव",
        -9.658607848424497
      ],
      [
        "न्तु",
        -9.659256155231237
      ],
      [
        "▁सुयोधन",
        -9.662447145727082
      ],
      [
        "मतिः",
        -9.662818674467031
      ],
      [
        "▁मेघ",
        -9.663150701639772
      ],
      [
        "ानिव",
        -9.663502547786807
      ],
      [
        "▁पापं",
        -9.66374466576342
      ],
      [
        "क्षय",
        -9.66476496067432
      ],
      [
        "को",
        -9.66512006133184
      ],
      [
        "▁द्रौणि",
        -9.66554689009942
      ],
      [
        "धर",
        -9.66694236560314
      ],
      [
        "ायां",
        -9.66920054719738
      ],
      [
        "ास्तु",
        -9.670232725175469
      ],
      [
        "▁देवाना",
        -9.670716792274812
      ],
      [
        "येत्",
        -9.670851018685346
      ],
      [
        "▁मोह",
        -9.672238313381392
      ],
      [
        "▁ताव",
        -9.672325579704935
      ],
      [
        "▁सर्वभूताना",
        -9.674221497985908
      ],
      [
        "ितुं",
        -9.676439476253556
      ],
      [
        "मे",
        -9.678721003941972
      ],
      [
        "▁पन्नग",
        -9.679970268003078
      ],
      [
        "वृत्त",
        -9.680984521285149
      ],
      [
        "▁नाहं",
        -9.683577243722324
      ],
      [
        "स्मै",
        -9.68479120594611
      ],
      [
        "▁सदृश",
        -9.685016966147987
      ],
      [
        "ाश्चैव",
        -9.685448961140208
      ],
      [
        "▁राक्षसेन्द्र",
        -9.68557240517535
      ],
      [
        "▁प्रियं",
        -9.685863722156084
      ],
      [
        "▁तिष्ठत",
        -9.686006409890988
      ],
      [
        "▁प्रा",
        -9.68660701758938
      ],
      [
        "रे",
        -9.686815632720837
      ],
      [
        "▁विशेषत",
        -9.687083779525988
      ],
      [
        "▁भवन्ति",
        -9.687209218347489
      ],
      [
        "▁संक्रुद्ध",
        -9.687317164695957
      ],
      [
        "▁वाक्यमब्रवीत्",
        -9.689374921750364
      ],
      [
        "देह",
        -9.68972109626142
      ],
      [
        "हम्",
        -9.689971635793912
      ],
      [
        "▁भविता",
        -9.690903050268895
      ],
      [
        "▁दीप्त",
        -9.691789620427066
      ],
      [
        "ोऽब्रवीत्",
        -9.691879835954948
      ],
      [
        "▁लभते",
        -9.692715980211185
      ],
      [
        "▁शिरसा",
        -9.693579907998352
      ],
      [
        "▁नारायण",
        -9.694821688497418
      ],
      [
        "▁खड्ग",
        -9.694982928553149
      ],
      [
        "धि",
        -9.695901039107945
      ],
      [
        "वयम्",
        -9.69593031392466
      ],
      [
        "▁तयो",
        -9.69816204710204
      ],
      [
        "▁महीपति",
        -9.698305282973813
      ],
      [
        "▁विराट",
        -9.698698467684135
      ],
      [
        "▁महावीर्य",
        -9.69951276383504
      ],
      [
        "माहवे",
        -9.699818480162966
      ],
      [
        "▁शम",
        -9.70012753234568
      ],
      [
        "ास्त",
        -9.70167351114377
      ],
      [
        "▁मित्र",
        -9.70170325945238
      ],
      [
        "▁नगर",
        -9.705800104688162
      ],
      [
        "▁नराः",
        -9.708629233348288
      ],
      [
        "जायत",
        -9.708844835970377
      ],
      [
        "ने",
        -9.708901204543691
      ],
      [
        "▁राज्य",
        -9.709457747690172
      ],
      [
        "ात्मज",
        -9.710374069878
      ],
      [
        "▁मन्द",
        -9.71094295135483
      ],
      [
        "▁पार्षत",
        -9.711136648110749
      ],
      [
        "▁समेत्य",
        -9.712163730948966
      ],
      [
        "▁धर्मे",
        -9.714018364163556
      ],
      [
        "▁भार्गव",
        -9.71426897300321
      ],
      [
        "▁सैन्धव",
        -9.715962955177408
      ],
      [
        "दर्शन",
        -9.716067362657505
      ],
      [
        "▁कुमार",
        -9.716685120617164
      ],
      [
        "यति",
        -9.717181844203044
      ],
      [
        "▁ध्रुव",
        -9.717433628984626
      ],
      [
        "रु",
        -9.71885987890716
      ],
      [
        "▁संप्राप्त",
        -9.719914975154474
      ],
      [
        "संकाश",
        -9.72040692446338
      ],
      [
        "ास्तथा",
        -9.722045990098117
      ],
      [
        "▁महाभाग",
        -9.723129950953872
      ],
      [
        "▁भर्तार",
        -9.723768072959782
      ],
      [
        "▁शक्यं",
        -9.724105135999164
      ],
      [
        "▁समुद्र",
        -9.724958914909736
      ],
      [
        "▁जायते",
        -9.726730855833534
      ],
      [
        "ाश्रम",
        -9.726784199488907
      ],
      [
        "वचः",
        -9.727660677811697
      ],
      [
        "कर",
        -9.727755158690552
      ],
      [
        "▁दिवि",
        -9.72791535253138
      ],
      [
        "ैष",
        -9.728930255198154
      ],
      [
        "वाद",
        -9.729062868496062
      ],
      [
        "▁त्वम",
        -9.730414477372758
      ],
      [
        "▁माता",
        -9.730457035215991
      ],
      [
        "▁कामं",
        -9.731105919197931
      ],
      [
        "▁पुत्रा",
        -9.73249283550317
      ],
      [
        "ेनैव",
        -9.733832780404764
      ],
      [
        "श्",
        -9.735059005452436
      ],
      [
        "▁नान्य",
        -9.735271753616775
      ],
      [
        "ावुभौ",
        -9.735463688703838
      ],
      [
        "िव",
        -9.735589250649507
      ],
      [
        "ेश्वर",
        -9.735918767398346
      ],
      [
        "संशय",
        -9.736917495710124
      ],
      [
        "▁महेन्द्र",
        -9.73757394003807
      ],
      [
        "▁मार्ग",
        -9.738104915864936
      ],
      [
        "कं",
        -9.738519720209704
      ],
      [
        "ुर",
        -9.738873036181069
      ],
      [
        "▁शाश्वत",
        -9.738979473588936
      ],
      [
        "▁पुर",
        -9.739400329372533
      ],
      [
        "▁माया",
        -9.739434253482385
      ],
      [
        "जानामि",
        -9.741359578675269
      ],
      [
        "मि",
        -9.741739065520784
      ],
      [
        "ाति",
        -9.742588869167289
      ],
      [
        "▁वरं",
        -9.74380154583653
      ],
      [
        "तम्",
        -9.743973566208664
      ],
      [
        "▁कुरुते",
        -9.744381099939616
      ],
      [
        "▁भरतश्रेष्ठ",
        -9.744547862109656
      ],
      [
        "▁सर्वाः",
        -9.745276837148005
      ],
      [
        "मेक",
        -9.74604396585597
      ],
      [
        "र्न",
        -9.746084282059376
      ],
      [
        "मु",
        -9.746730311138853
      ],
      [
        "▁दिशो",
        -9.748965799960056
      ],
      [
        "▁हर्ष",
        -9.749231917148157
      ],
      [
        "▁द्रष्टु",
        -9.749987587879591
      ],
      [
        "▁दुःशासन",
        -9.750160726893336
      ],
      [
        "मनुत्तम",
        -9.75042911268564
      ],
      [
        "मन",
        -9.751009091957858
      ],
      [
        "वीर्य",
        -9.751089809861242
      ],
      [
        "▁सहस्र",
        -9.752010475739883
      ],
      [
        "▁चान्ये",
        -9.753155121792943
      ],
      [
        "▁रूप",
        -9.753470467684885
      ],
      [
        "▁सुकृत",
        -9.75355181002518
      ],
      [
        "▁नील",
        -9.754502866550308
      ],
      [
        "त्स",
        -9.754844785851134
      ],
      [
        "ीय",
        -9.75516672834328
      ],
      [
        "▁नात्र",
        -9.755196691064771
      ],
      [
        "▁प्रविवेश",
        -9.755438626937917
      ],
      [
        "▁भूयः",
        -9.75562126099039
      ],
      [
        "▁ज्येष्ठ",
        -9.755810371007009
      ],
      [
        "▁मार्कण्डेय",
        -9.757521505582687
      ],
      [
        "पाद",
        -9.758267407108985
      ],
      [
        "वास",
        -9.75866590562125
      ],
      [
        "ान्तर",
        -9.760985062364984
      ],
      [
        "ासि",
        -9.761560280868077
      ],
      [
        "द्वार",
        -9.76165644737503
      ],
      [
        "राक्षस",
        -9.763133977106856
      ],
      [
        "▁भास्कर",
        -9.763842098874072
      ],
      [
        "ाग्नि",
        -9.766140407162936
      ],
      [
        "▁भीमो",
        -9.766208643617087
      ],
      [
        "▁शक्य",
        -9.766525810640283
      ],
      [
        "▁सहस्राण",
        -9.766544241054852
      ],
      [
        "▁भवन्त",
        -9.767132816239624
      ],
      [
        "वती",
        -9.767991716699896
      ],
      [
        "▁कुरुनन्दन",
        -9.769034573295908
      ],
      [
        "▁यश्च",
        -9.769149284443507
      ],
      [
        "▁सीतां",
        -9.769391245768356
      ],
      [
        "▁क्वचित्",
        -9.769417544724185
      ],
      [
        "त्रिषु",
        -9.769748902372362
      ],
      [
        "▁द्रौपदी",
        -9.773495641214089
      ],
      [
        "ुप",
        -9.773953052647864
      ],
      [
        "▁मोक्ष",
        -9.774552294622753
      ],
      [
        "▁राधेय",
        -9.77483862373425
      ],
      [
        "▁गता",
        -9.775059446134064
      ],
      [
        "शोक",
        -9.777661002699276
      ],
      [
        "▁मधुसूदन",
        -9.7778469874068
      ],
      [
        "▁पितृ",
        -9.77861681685712
      ],
      [
        "]",
        -9.779528307951766
      ],
      [
        "▁[",
        -9.779528325779747
      ],
      [
        "▁शतश",
        -9.779549929603634
      ],
      [
        "▁परम्",
        -9.77959869056224
      ],
      [
        "▁ध्वज",
        -9.77968972704079
      ],
      [
        "▁कृष्णा",
        -9.779785440548132
      ],
      [
        "▁कोप",
        -9.77979107687175
      ],
      [
        "दण्ड",
        -9.780207207214495
      ],
      [
        "शील",
        -9.780431196849232
      ],
      [
        "▁ऊचु",
        -9.780813589168098
      ],
      [
        "▁जयद्रथ",
        -9.78093289019425
      ],
      [
        "▁एवमुक्त",
        -9.781145192763844
      ],
      [
        "जात",
        -9.781839581442096
      ],
      [
        "▁तथ",
        -9.781857021877986
      ],
      [
        "मेत",
        -9.78282216654873
      ],
      [
        "▁किंचिद",
        -9.785160127698887
      ],
      [
        "▁सर्वाण",
        -9.785598942946857
      ],
      [
        "▁नरर्षभ",
        -9.78606693056716
      ],
      [
        "भिश्च",
        -9.786400250586704
      ],
      [
        "▁तुल्य",
        -9.786565648683816
      ],
      [
        "▁जन्म",
        -9.787202351960165
      ],
      [
        "▁ततस्तु",
        -9.789059317994628
      ],
      [
        "▁गौतम",
        -9.790137627212845
      ],
      [
        "▁फल्गुन",
        -9.791066879200296
      ],
      [
        "▁पुरातन",
        -9.79136485471721
      ],
      [
        "▁क्रिया",
        -9.794004653718634
      ],
      [
        "▁शकुनि",
        -9.795069804937878
      ],
      [
        "▁बहुधा",
        -9.796487630330164
      ],
      [
        "खलु",
        -9.797423058040655
      ],
      [
        "नाग",
        -9.797690424142042
      ],
      [
        "▁विना",
        -9.798353456832146
      ],
      [
        "संयुक्त",
        -9.79857301142606
      ],
      [
        "▁महातपा",
        -9.79972638575702
      ],
      [
        "स्या",
        -9.800091340056234
      ],
      [
        "▁इम",
        -9.800170289632051
      ],
      [
        "▁विद्या",
        -9.800339242625135
      ],
      [
        "परा",
        -9.80034824815992
      ],
      [
        "न्त्य",
        -9.800724328602506
      ],
      [
        "▁यत्न",
        -9.800783638277958
      ],
      [
        "▁ब्रह्मा",
        -9.801070669831802
      ],
      [
        "ोऽप्य",
        -9.801411883322976
      ],
      [
        "▁शरवर्ष",
        -9.801986393459398
      ],
      [
        "ड",
        -9.802823884477831
      ],
      [
        "दार",
        -9.803077196049324
      ],
      [
        "▁सत्त्व",
        -9.803717311143403
      ],
      [
        "▁गच्छन्त",
        -9.804126363616811
      ],
      [
        "▁दृढ",
        -9.804148558472026
      ],
      [
        "न्निव",
        -9.805350217647035
      ],
      [
        "्यां",
        -9.805466471775958
      ],
      [
        "▁वायु",
        -9.80551896122567
      ],
      [
        "▁कर्तुं",
        -9.806036440546656
      ],
      [
        "रथं",
        -9.806941197203098
      ],
      [
        "बलं",
        -9.806987281624243
      ],
      [
        "▁तत्रैव",
        -9.807452404604918
      ],
      [
        "▁लोभ",
        -9.808580816918568
      ],
      [
        "बाण",
        -9.80918475788364
      ],
      [
        "हा",
        -9.810047550997822
      ],
      [
        "▁जातु",
        -9.810418134824666
      ],
      [
        "ाङ्ग",
        -9.81110683808324
      ],
      [
        "▁हते",
        -9.811110621129284
      ],
      [
        "▁बहवो",
        -9.811876989024526
      ],
      [
        "▁विजय",
        -9.81195028835182
      ],
      [
        "▁गमिष्याम",
        -9.812071833678052
      ],
      [
        "▁दक्षिण",
        -9.81217492395058
      ],
      [
        "▁पद्म",
        -9.81237337741712
      ],
      [
        "▁प्रगृह्य",
        -9.812930503795815
      ],
      [
        "सा",
        -9.81413306065025
      ],
      [
        "▁निधन",
        -9.814478739783308
      ],
      [
        "▁प्रथम",
        -9.815238855272169
      ],
      [
        "▁दृश्यन्ते",
        -9.81534049515134
      ],
      [
        "▁हता",
        -9.815579985703476
      ],
      [
        "▁सुता",
        -9.815692207071963
      ],
      [
        "▁एवमुक्तस्तु",
        -9.816184328629554
      ],
      [
        "्यते",
        -9.81774358698057
      ],
      [
        "▁मत्त",
        -9.81804252347567
      ],
      [
        "▁जित",
        -9.820093485504753
      ],
      [
        "▁रावणः",
        -9.82021702483183
      ],
      [
        "बुद्धि",
        -9.820794208958368
      ],
      [
        "सौ",
        -9.821573995693864
      ],
      [
        "▁घटोत्कच",
        -9.82206270969088
      ],
      [
        "▁द्विजसत्तम",
        -9.82256611714246
      ],
      [
        "▁तेषाम",
        -9.822576399878542
      ],
      [
        "▁यद्य",
        -9.822985632126088
      ],
      [
        "▁तपः",
        -9.823464315528849
      ],
      [
        "▁श्री",
        -9.82424418125604
      ],
      [
        "▁मन्यसे",
        -9.824475122976892
      ],
      [
        "गन्ध",
        -9.824681704856058
      ],
      [
        "▁शिष्य",
        -9.82480948641239
      ],
      [
        "▁क्षत्रिया",
        -9.825178731965089
      ],
      [
        "▁सिद्धि",
        -9.825483373389908
      ],
      [
        "▁कु",
        -9.82618267895417
      ],
      [
        "मन्य",
        -9.826787234993157
      ],
      [
        "कुल",
        -9.826789583130662
      ],
      [
        "▁नरेन्द्र",
        -9.827196545599469
      ],
      [
        "▁स्नात्वा",
        -9.82763656027062
      ],
      [
        "▁नृपः",
        -9.82811893691818
      ],
      [
        "िषु",
        -9.82899906965163
      ],
      [
        "▁कर्णस्य",
        -9.830149387608564
      ],
      [
        "▁पाण्डवान्",
        -9.830750690010271
      ],
      [
        "▁समीक्ष्य",
        -9.831867835042782
      ],
      [
        "ष्व",
        -9.83197423675398
      ],
      [
        "▁स्वं",
        -9.832088271307104
      ],
      [
        "सहस्राण",
        -9.83287550064514
      ],
      [
        "▁श्रिया",
        -9.833172921533126
      ],
      [
        "▁राजपुत्र",
        -9.833387888699658
      ],
      [
        "गतं",
        -9.83411376742002
      ],
      [
        "▁विदित",
        -9.834138198795404
      ],
      [
        "मित्र",
        -9.835585841329875
      ],
      [
        "▁द्विजोत्तम",
        -9.837922778962042
      ],
      [
        "▁लोका",
        -9.83947082357946
      ],
      [
        "बन्ध",
        -9.83955267872516
      ],
      [
        "▁बलेन",
        -9.840349690929632
      ],
      [
        "वद",
        -9.840527977233366
      ],
      [
        "▁गते",
        -9.840663355061938
      ],
      [
        "▁पुत्रस्य",
        -9.842090932781664
      ],
      [
        "▁रौद्र",
        -9.844809865491582
      ],
      [
        "▁भगवन्",
        -9.845597412348296
      ],
      [
        "गम",
        -9.845891476152843
      ],
      [
        "स्थान",
        -9.846026170300544
      ],
      [
        "ासीत्",
        -9.84742886182121
      ],
      [
        "▁पार्थो",
        -9.847716515114506
      ],
      [
        "▁शास्त्र",
        -9.84877395584794
      ],
      [
        "देश",
        -9.84911153332986
      ],
      [
        "▁सर्प",
        -9.84922931555305
      ],
      [
        "▁देवि",
        -9.85002034750078
      ],
      [
        "▁गृहीत्वा",
        -9.850187753960252
      ],
      [
        "वर्तते",
        -9.850598132008482
      ],
      [
        "▁तेऽ",
        -9.8507007918776
      ],
      [
        "▁निर",
        -9.850884691426923
      ],
      [
        "▁कुरूणां",
        -9.852042494988076
      ],
      [
        "▁गन्ध",
        -9.852141234069649
      ],
      [
        "▁कृता",
        -9.853031360780186
      ],
      [
        "▁विश्रुत",
        -9.85381210132852
      ],
      [
        "▁दीर्घ",
        -9.854438387403077
      ],
      [
        "▁कुले",
        -9.855449864718937
      ],
      [
        "▁उ",
        -9.855627913664808
      ],
      [
        "हत",
        -9.856174293732728
      ],
      [
        "▁दोष",
        -9.856321920859196
      ],
      [
        "▁अन्योन्य",
        -9.856559321935034
      ],
      [
        "ती",
        -9.8578321345043
      ],
      [
        "स्म",
        -9.858418641976694
      ],
      [
        "▁इत्युक्त",
        -9.858656903539408
      ],
      [
        "▁वीरः",
        -9.859100264189829
      ],
      [
        "▁माम",
        -9.85970141527975
      ],
      [
        "▁चाप",
        -9.860467813802645
      ],
      [
        "▁अग्नि",
        -9.860560657249884
      ],
      [
        "▁भुज",
        -9.861079891244495
      ],
      [
        "▁पुष्प",
        -9.861529557256834
      ],
      [
        "र्य",
        -9.862189651396632
      ],
      [
        "ब्रवीत्",
        -9.86294940856842
      ],
      [
        "मय",
        -9.863248917322473
      ],
      [
        "▁वचो",
        -9.863628857460416
      ],
      [
        "▁सेनां",
        -9.86376314732071
      ],
      [
        "▁सैन्यं",
        -9.86433056628301
      ],
      [
        "ांस्तथा",
        -9.864757398177552
      ],
      [
        "▁पर्य",
        -9.865117607438687
      ],
      [
        "▁महाबलाः",
        -9.865131078534215
      ],
      [
        "▁चैनं",
        -9.865964264933137
      ],
      [
        "▁द्वादश",
        -9.866035080430066
      ],
      [
        "माम्",
        -9.866751467982468
      ],
      [
        "लोक",
        -9.869098892163198
      ],
      [
        "▁महती",
        -9.869455647071556
      ],
      [
        "माण",
        -9.87015705094668
      ],
      [
        "▁सिद्ध",
        -9.870298592865886
      ],
      [
        "▁कवच",
        -9.870428389659176
      ],
      [
        "▁उच्यत",
        -9.871896380477176
      ],
      [
        "▁भूय",
        -9.872453595937476
      ],
      [
        "▁तपोधन",
        -9.872855098864552
      ],
      [
        "▁निशाचर",
        -9.873120785312354
      ],
      [
        "रव",
        -9.873366555839958
      ],
      [
        "ीव",
        -9.873707648343048
      ],
      [
        "▁रावणस्य",
        -9.876999495716614
      ],
      [
        "रा",
        -9.877558305929805
      ],
      [
        "▁हृत",
        -9.877780284171775
      ],
      [
        "▁मनुष्य",
        -9.878413027371264
      ],
      [
        "जय",
        -9.8789667741836
      ],
      [
        "▁पुरंदर",
        -9.879061223201482
      ],
      [
        "ेद्",
        -9.879211249319775
      ],
      [
        "▁संग्राम",
        -9.879580052723938
      ],
      [
        "न्तं",
        -9.879649669410686
      ],
      [
        "▁चित्र",
        -9.880759637064902
      ],
      [
        "▁रुधिर",
        -9.880886945989364
      ],
      [
        "ार्थे",
        -9.881759969767383
      ],
      [
        "कर्माण",
        -9.881888222726856
      ],
      [
        "श्चाप्य",
        -9.88189414601975
      ],
      [
        "▁किंचन",
        -9.882217810677584
      ],
      [
        "ा;न्",
        -9.882298032359149
      ],
      [
        "वृक्ष",
        -9.88247965443852
      ],
      [
        "▁गुणा",
        -9.88262315773703
      ],
      [
        "संभव",
        -9.883935740386882
      ],
      [
        "राम",
        -9.884043955063472
      ],
      [
        "▁स्वयम्",
        -9.884298252845074
      ],
      [
        "▁किमर्थ",
        -9.885067368430123
      ],
      [
        "▁विष्णु",
        -9.885995608493
      ],
      [
        "गृह",
        -9.886353912762086
      ],
      [
        "पश्याम",
        -9.886877465898882
      ],
      [
        "ामहे",
        -9.886949851310543
      ],
      [
        "▁शुभे",
        -9.888373902234203
      ],
      [
        "▁शतं",
        -9.889104318021054
      ],
      [
        "ीह",
        -9.889669526583326
      ],
      [
        "▁जीवत",
        -9.889716289773387
      ],
      [
        "ग्नि",
        -9.88972708642731
      ],
      [
        "दृष्ट",
        -9.890088361272245
      ],
      [
        "▁उभ",
        -9.890903340577164
      ],
      [
        "पत",
        -9.891070604200848
      ],
      [
        "मृग",
        -9.892394725597
      ],
      [
        "▁तद्वचन",
        -9.892941662305098
      ],
      [
        "भीमं",
        -9.89343422297403
      ],
      [
        "मुवाच",
        -9.89514026519836
      ],
      [
        "▁व्यक्त",
        -9.895268263407152
      ],
      [
        "श्चा",
        -9.895401645731734
      ],
      [
        "स्ति",
        -9.897403969012624
      ],
      [
        "▁तान",
        -9.897457148341951
      ],
      [
        "नः",
        -9.897944747125434
      ],
      [
        "प्राप्त",
        -9.898472751833085
      ],
      [
        "भुज",
        -9.899196810286483
      ],
      [
        "पर्वत",
        -9.901507183356332
      ],
      [
        "▁विविधान",
        -9.901906256341022
      ],
      [
        "धा",
        -9.902214742918291
      ],
      [
        "▁करिष्याम",
        -9.904307524140131
      ],
      [
        "ाश्रय",
        -9.905500668000212
      ],
      [
        "▁रथिना",
        -9.905957577319302
      ],
      [
        "स्तेषा",
        -9.908016327174266
      ],
      [
        "▁यशस्विनी",
        -9.908179310627418
      ],
      [
        "मुत्सृज्य",
        -9.90993908496554
      ],
      [
        "▁जनाधिप",
        -9.910054421257996
      ],
      [
        "▁निहत्य",
        -9.911733739846657
      ],
      [
        "स्त्र",
        -9.912349256659663
      ],
      [
        "▁मत्स्य",
        -9.912420016838604
      ],
      [
        "▁शाप",
        -9.91251226966795
      ],
      [
        "▁कश्च",
        -9.912609756738092
      ],
      [
        "वद्",
        -9.912778996531893
      ],
      [
        "चार",
        -9.91327502618732
      ],
      [
        "क्र",
        -9.913640969149649
      ],
      [
        "कल्प",
        -9.913863301383618
      ],
      [
        "▁के",
        -9.913989540051428
      ],
      [
        "▁धर्मस्य",
        -9.915386141586623
      ],
      [
        "▁कथा",
        -9.91541411331162
      ],
      [
        "▁यक्ष",
        -9.916150669356382
      ],
      [
        "▁देवराज",
        -9.916359690338473
      ],
      [
        "नाद",
        -9.916774837526644
      ],
      [
        "▁यस्तु",
        -9.91720886563366
      ],
      [
        "ात्स",
        -9.918370912128507
      ],
      [
        "▁मेदिनी",
        -9.918706132226555
      ],
      [
        "▁जगत्",
        -9.919009205611754
      ],
      [
        "▁कश्चित्",
        -9.919368767946924
      ],
      [
        "▁सैन्य",
        -9.91948378906572
      ],
      [
        "वित्",
        -9.920525605133914
      ],
      [
        "परायण",
        -9.920866369161734
      ],
      [
        "▁वसु",
        -9.92153771370204
      ],
      [
        "▁वार्ष्णेय",
        -9.923405930888274
      ],
      [
        "▁पाण्डवै",
        -9.923627254995374
      ],
      [
        "दुःख",
        -9.924643398404571
      ],
      [
        "▁प्रेत्य",
        -9.924833960171531
      ],
      [
        "▁क्रूर",
        -9.92531926915546
      ],
      [
        "▁भीष्मः",
        -9.925546457299832
      ],
      [
        "▁सूक्ष्म",
        -9.925546493667644
      ],
      [
        "स्त्रियः",
        -9.925588894838064
      ],
      [
        "▁दैवत",
        -9.927898897647331
      ],
      [
        "▁यानि",
        -9.928011914060887
      ],
      [
        "▁दान",
        -9.928389119382809
      ],
      [
        "्यं",
        -9.928556799094384
      ],
      [
        "▁खर",
        -9.929431611359105
      ],
      [
        "स्था",
        -9.931048724148685
      ],
      [
        "▁भारद्वाज",
        -9.931125660903064
      ],
      [
        "▁वसिष्ठ",
        -9.931818769946943
      ],
      [
        "▁बृहस्पति",
        -9.931872503124625
      ],
      [
        "▁निशम्य",
        -9.931917436629698
      ],
      [
        "▁अर्थ",
        -9.933336380051667
      ],
      [
        "स्त्वा",
        -9.933661197472968
      ],
      [
        "▁विषय",
        -9.9336901299138
      ],
      [
        "गता",
        -9.933905207539354
      ],
      [
        "▁ब्रह्मन्",
        -9.93502301306248
      ],
      [
        "▁क्षमा",
        -9.93679650608444
      ],
      [
        "मित",
        -9.938084278968116
      ],
      [
        "▁एतच्छ्रुत्वा",
        -9.938114547628205
      ],
      [
        "▁पप्रच्छ",
        -9.93820278369491
      ],
      [
        "संघ",
        -9.938457271370392
      ],
      [
        "▁मूढ",
        -9.938574130216496
      ],
      [
        "▁व्यसन",
        -9.938653120496731
      ],
      [
        "संनिभ",
        -9.938921314538057
      ],
      [
        "वीर",
        -9.939647970224204
      ],
      [
        "युक्त",
        -9.939658225982528
      ],
      [
        "▁क्षम",
        -9.940617132788656
      ],
      [
        "िह",
        -9.940955787689404
      ],
      [
        "ट",
        -9.941117302700968
      ],
      [
        "▁कुत",
        -9.942012733847244
      ],
      [
        "▁सात्वत",
        -9.942254317186736
      ],
      [
        "▁सलिल",
        -9.9424126537434
      ],
      [
        "▁युक्त",
        -9.943254070171973
      ],
      [
        "िक",
        -9.945103497487846
      ],
      [
        "▁दारुण",
        -9.945300384345462
      ],
      [
        "▁व्यवस्थित",
        -9.947129032201673
      ],
      [
        "पूर्व",
        -9.947903668171724
      ],
      [
        "▁हित्वा",
        -9.94856161104974
      ],
      [
        "▁नृपति",
        -9.949079888924928
      ],
      [
        "▁स्याद",
        -9.95056436996703
      ],
      [
        "▁गवां",
        -9.951356809205333
      ],
      [
        "तरं",
        -9.951593387216445
      ],
      [
        "▁पार्थं",
        -9.952743675998184
      ],
      [
        "▁श",
        -9.953021919215235
      ],
      [
        "ेषां",
        -9.953577547572532
      ],
      [
        "▁सिंहनाद",
        -9.954415251322802
      ],
      [
        "▁रथेन",
        -9.95481005151997
      ],
      [
        "▁जीवितं",
        -9.955148062476187
      ],
      [
        "द्विज",
        -9.955151542803788
      ],
      [
        "▁कर्णः",
        -9.955723162386237
      ],
      [
        "▁यत",
        -9.956660923939008
      ],
      [
        "▁भूयो",
        -9.958260794037258
      ],
      [
        "▁यथाविधि",
        -9.958398778873384
      ],
      [
        "▁प्रोक्त",
        -9.95900297925471
      ],
      [
        "▁तया",
        -9.95907180603459
      ],
      [
        "▁कुञ्जर",
        -9.960071813120264
      ],
      [
        "मानं",
        -9.9605204587778
      ],
      [
        "▁स्याद्",
        -9.961421947887526
      ],
      [
        "▁बली",
        -9.962306185248792
      ],
      [
        "ण्ड",
        -9.9628484978828
      ],
      [
        "कार्य",
        -9.9641770880699
      ],
      [
        "वश",
        -9.965817570725765
      ],
      [
        "▁लब्ध्वा",
        -9.966064189303108
      ],
      [
        "▁प्रतिगृह्य",
        -9.966173176801597
      ],
      [
        "▁शेते",
        -9.966187205520768
      ],
      [
        "तं",
        -9.966779127782733
      ],
      [
        "▁त्रि",
        -9.967147051078904
      ],
      [
        "पाप",
        -9.968206510794328
      ],
      [
        "▁सुवर्ण",
        -9.968998967358
      ],
      [
        "▁प्रेषयामास",
        -9.969202479396678
      ],
      [
        "न्तो",
        -9.969532725454926
      ],
      [
        "▁शिव",
        -9.96956579500311
      ],
      [
        "मोह",
        -9.969812696650571
      ],
      [
        "▁संक्रुद्धो",
        -9.970125709773878
      ],
      [
        "न्व",
        -9.97153195544304
      ],
      [
        "त्त",
        -9.971625533015612
      ],
      [
        "▁प्रयय",
        -9.973006040754836
      ],
      [
        "▁मानवा",
        -9.973060987621146
      ],
      [
        "▁श्रूयते",
        -9.973263694317255
      ],
      [
        "▁दानव",
        -9.973585796573456
      ],
      [
        "▁गाङ्गेय",
        -9.973770532592694
      ],
      [
        "▁पुत्रः",
        -9.974470672354752
      ],
      [
        "▁पार्थिवः",
        -9.974643213939457
      ],
      [
        "▁द्रोणो",
        -9.975502709415183
      ],
      [
        "▁तैः",
        -9.975867251391008
      ],
      [
        "ोऽस्ति",
        -9.976750101952252
      ],
      [
        "▁दत्त",
        -9.976902143298645
      ],
      [
        "ितं",
        -9.977011894817242
      ],
      [
        "▁धनं",
        -9.977367386062156
      ],
      [
        "▁कृते",
        -9.977717589331734
      ],
      [
        "▁श्रुति",
        -9.97801293541065
      ],
      [
        "▁वीरो",
        -9.978277423050784
      ],
      [
        "जहि",
        -9.979781997102831
      ],
      [
        "▁शैनेय",
        -9.980199973221238
      ],
      [
        "▁स्वस्ति",
        -9.980595197203868
      ],
      [
        "▁परा",
        -9.981770787672776
      ],
      [
        "ार्जुन",
        -9.98230171786004
      ],
      [
        "▁बलवान्",
        -9.98250747978086
      ],
      [
        "▁वृत्त",
        -9.982598400016451
      ],
      [
        "योर्",
        -9.982729460949349
      ],
      [
        "ला",
        -9.982745150457344
      ],
      [
        "ौघ",
        -9.983405129355916
      ],
      [
        "▁मत",
        -9.983726522598223
      ],
      [
        "ाजौ",
        -9.98495750946282
      ],
      [
        "ासीद्",
        -9.985580758742229
      ],
      [
        "▁तूर्णं",
        -9.985606384445678
      ],
      [
        "सह",
        -9.986524661939493
      ],
      [
        "▁नित्यम",
        -9.987714953729604
      ],
      [
        "▁रत्न",
        -9.988192600144496
      ],
      [
        "▁पुष्कर",
        -9.98834905697816
      ],
      [
        "▁लोकस्य",
        -9.988629533575203
      ],
      [
        "▁गतिः",
        -9.9887706017201
      ],
      [
        "गा",
        -9.98915419615012
      ],
      [
        "ासन",
        -9.989587635313502
      ],
      [
        "▁पक्ष",
        -9.989714560541678
      ],
      [
        "▁बहव",
        -9.989720380431187
      ],
      [
        "▁वर्षाण",
        -9.99017773955913
      ],
      [
        "▁महाभागा",
        -9.990488062792046
      ],
      [
        "ैस्तथा",
        -9.991279488398936
      ],
      [
        "ृ",
        -9.99212552265579
      ],
      [
        "▁प्रेक्ष्य",
        -9.992379733993133
      ],
      [
        "न्ये",
        -9.992450067098977
      ],
      [
        "▁नरा",
        -9.993834599248071
      ],
      [
        "▁मैथिली",
        -9.994232727998
      ],
      [
        "▁प्रीत",
        -9.994500745806675
      ],
      [
        "▁सात्यकिः",
        -9.994648643861073
      ],
      [
        "रि",
        -9.9947575525736
      ],
      [
        "ाक्ष",
        -9.99490216337017
      ],
      [
        "ैर्न",
        -9.995847324504757
      ],
      [
        "जायते",
        -9.995977643790953
      ],
      [
        "▁प्रोवाच",
        -9.996182934402292
      ],
      [
        "▁युक्ता",
        -9.996728960346676
      ],
      [
        "▁कदाच",
        -9.997283767033393
      ],
      [
        "▁यथान्याय",
        -9.997349752642837
      ],
      [
        "▁मधु",
        -9.99797525875043
      ],
      [
        "▁संप्रेक्ष्य",
        -9.99797940323236
      ],
      [
        "▁हुताशन",
        -9.998010278691616
      ],
      [
        "▁महाबाहुर्",
        -9.99811448672719
      ],
      [
        "्यहं",
        -9.99881332411814
      ],
      [
        "▁पुत्राणा",
        -9.999300040632704
      ],
      [
        "धी",
        -10.000353423155282
      ],
      [
        "▁पृथिव्यां",
        -10.000716430250492
      ],
      [
        "▁हृदयं",
        -10.001401930943794
      ],
      [
        "▁शिखण्डी",
        -10.001949939116
      ],
      [
        "▁महामुनि",
        -10.002036862146998
      ],
      [
        "▁योध",
        -10.00271656334245
      ],
      [
        "▁सौभद्र",
        -10.005874149033035
      ],
      [
        "▁चेद",
        -10.005933209003686
      ],
      [
        "ात्मान",
        -10.00700823245134
      ],
      [
        "ाभ्य",
        -10.00863628315166
      ],
      [
        "ात्र",
        -10.00891423948703
      ],
      [
        "▁आत्म",
        -10.008932486468504
      ],
      [
        "▁मणि",
        -10.010139306962987
      ],
      [
        "▁प्राप्ता",
        -10.010443457963593
      ],
      [
        "▁मह",
        -10.010972222424078
      ],
      [
        "तीव",
        -10.011340246085735
      ],
      [
        "ादि",
        -10.011691180837044
      ],
      [
        "राजा",
        -10.011813128183826
      ],
      [
        "रो",
        -10.011849013808105
      ],
      [
        "नीत",
        -10.012483005537227
      ],
      [
        "▁विक्रम",
        -10.012755229714056
      ],
      [
        "▁पश्यन्त",
        -10.01323964187262
      ],
      [
        "ात्मना",
        -10.013275647670996
      ],
      [
        "▁रक्षसां",
        -10.013774965185636
      ],
      [
        "▁लङ्का",
        -10.013836974723883
      ],
      [
        "▁वृक्ष",
        -10.014105772561354
      ],
      [
        "ात्मनः",
        -10.014216900755455
      ],
      [
        "सेन",
        -10.01437070097306
      ],
      [
        "▁दम",
        -10.014439046185927
      ],
      [
        "मास्थित",
        -10.015968097206065
      ],
      [
        "गच्छ",
        -10.016127582547062
      ],
      [
        "समन्वित",
        -10.017451939816716
      ],
      [
        "▁एषा",
        -10.018039930946506
      ],
      [
        "गज",
        -10.018737098176167
      ],
      [
        "▁वीरा",
        -10.019046212309174
      ],
      [
        "मृत",
        -10.01942379674447
      ],
      [
        "▁रस",
        -10.01942922294863
      ],
      [
        "मितिहास",
        -10.020793772367966
      ],
      [
        "पतिः",
        -10.020980614507756
      ],
      [
        "▁अथा",
        -10.022469513318535
      ],
      [
        "▁मृत",
        -10.022643532005588
      ],
      [
        "हन्ति",
        -10.02300258059134
      ],
      [
        "▁हृदि",
        -10.023133543982286
      ],
      [
        "मव",
        -10.023366317088758
      ],
      [
        "▁श्वेत",
        -10.023538419937484
      ],
      [
        "ाप्य",
        -10.023888891916664
      ],
      [
        "▁परवीरह",
        -10.024273572443413
      ],
      [
        "▁निहता",
        -10.0249222410417
      ],
      [
        "नाम",
        -10.02523676938098
      ],
      [
        "रतः",
        -10.025454796271472
      ],
      [
        "▁पुण्यं",
        -10.026324696549867
      ],
      [
        "▁सौबल",
        -10.027851282555789
      ],
      [
        "पक्ष",
        -10.028854650333956
      ],
      [
        "शब्द",
        -10.029066553302451
      ],
      [
        "▁कृतवर्मा",
        -10.029175558926076
      ],
      [
        "पुण्य",
        -10.029691201987577
      ],
      [
        "▁पराक्रम",
        -10.030166344005057
      ],
      [
        "पाण्डव",
        -10.030413351511632
      ],
      [
        "जा",
        -10.03043751283455
      ],
      [
        "▁वीरौ",
        -10.031052393465568
      ],
      [
        "▁प्रज्ञा",
        -10.031131831351429
      ],
      [
        "▁सर्वथा",
        -10.032187611162742
      ],
      [
        "ादित्य",
        -10.03251703999647
      ],
      [
        "▁यशस्विन",
        -10.032873558910032
      ],
      [
        "ल्प",
        -10.032958159758046
      ],
      [
        "▁पार्थस्य",
        -10.033448296580262
      ],
      [
        "संपन्न",
        -10.033500580999178
      ],
      [
        "▁मुमोच",
        -10.034747077647278
      ],
      [
        "▁हितं",
        -10.034806077436128
      ],
      [
        "कृष्ण",
        -10.036127541885376
      ],
      [
        "ष्यामि",
        -10.036272773237013
      ],
      [
        "▁द्रुम",
        -10.036614901159908
      ],
      [
        "▁शक्ति",
        -10.03664891125344
      ],
      [
        "▁सहितो",
        -10.036995146442797
      ],
      [
        "▁जज्ञे",
        -10.037659296437266
      ],
      [
        "▁भर्ता",
        -10.037991912594308
      ],
      [
        "▁प्रतिष्ठित",
        -10.038025668141684
      ],
      [
        "तुः",
        -10.038317180638774
      ],
      [
        "▁परिवार्य",
        -10.038485381234302
      ],
      [
        "▁राज्ञां",
        -10.039671284291323
      ],
      [
        "▁महेश्वर",
        -10.039682015770044
      ],
      [
        "▁गिर",
        -10.04014904197214
      ],
      [
        "भीम",
        -10.04024525301554
      ],
      [
        "▁युयुधान",
        -10.040545574385014
      ],
      [
        "▁कृच्छ्र",
        -10.041105729676064
      ],
      [
        "पश्य",
        -10.041593432299276
      ],
      [
        "ितम्",
        -10.042646651150562
      ],
      [
        "▁दिवं",
        -10.04419656340001
      ],
      [
        "▁शीघ्र",
        -10.044511327085146
      ],
      [
        "मम",
        -10.04519217934532
      ],
      [
        "▁नरश्रेष्ठ",
        -10.045537397341436
      ],
      [
        "वाह",
        -10.045558376597617
      ],
      [
        "▁वृद्ध",
        -10.045614046381663
      ],
      [
        "▁केवल",
        -10.046094848384978
      ],
      [
        "ब्रह्म",
        -10.047226498122772
      ],
      [
        "▁हेम",
        -10.047456252471918
      ],
      [
        "▁भग्न",
        -10.047813171522003
      ],
      [
        "▁हतो",
        -10.048039326571867
      ],
      [
        "▁धीमता",
        -10.048928213931593
      ],
      [
        "▁भीमसेनं",
        -10.048978835620284
      ],
      [
        "ास्मि",
        -10.050185312709548
      ],
      [
        "भ्र",
        -10.050223464699426
      ],
      [
        "▁कुर्या",
        -10.05061877353005
      ],
      [
        "▁पार्थेन",
        -10.050842549072843
      ],
      [
        "▁निबोध",
        -10.051223545484614
      ],
      [
        "▁रथे",
        -10.052073456454943
      ],
      [
        "▁अन्य",
        -10.052207880907488
      ],
      [
        "सत्तम",
        -10.052258190510734
      ],
      [
        "▁पाञ्चाला",
        -10.05272748238758
      ],
      [
        "▁स्त्रिय",
        -10.052729425982236
      ],
      [
        "चक्र",
        -10.052959886989044
      ],
      [
        "▁पञ्चभि",
        -10.053479663373391
      ],
      [
        "▁सरस्वती",
        -10.053669671542286
      ],
      [
        "िका",
        -10.053709908755804
      ],
      [
        "▁वत्स",
        -10.053918917253869
      ],
      [
        "▁यथैव",
        -10.054866643811266
      ],
      [
        "▁परां",
        -10.054951886159586
      ],
      [
        "▁सर्वतो",
        -10.05579430773368
      ],
      [
        "▁कपि",
        -10.055958755898155
      ],
      [
        "▁भीष्मो",
        -10.056202839989648
      ],
      [
        "काः",
        -10.057764588701428
      ],
      [
        "▁पित्रा",
        -10.058392183977912
      ],
      [
        "मागत",
        -10.059352376217792
      ],
      [
        "कम्",
        -10.059386427773289
      ],
      [
        "▁विद्ध्वा",
        -10.059390240446252
      ],
      [
        "▁वसुंधरा",
        -10.059950815473307
      ],
      [
        "श्नुते",
        -10.061018897160636
      ],
      [
        "द्रोण",
        -10.061257255016004
      ],
      [
        "▁ब्राह्मणानां",
        -10.061622613667772
      ],
      [
        "कृत्वा",
        -10.061770844670496
      ],
      [
        "▁शिखण्डिन",
        -10.062235522020057
      ],
      [
        "▁भित्त्वा",
        -10.06243170298769
      ],
      [
        "समा",
        -10.062510295612515
      ],
      [
        "▁तेजस्वी",
        -10.062699567761094
      ],
      [
        "▁अभ्य",
        -10.0632444762835
      ],
      [
        "▁पुरुषोत्तम",
        -10.063424325101831
      ],
      [
        "▁अहो",
        -10.064898955245482
      ],
      [
        "▁पाञ्चाल्य",
        -10.06562618728424
      ],
      [
        "मयं",
        -10.06712962385858
      ],
      [
        "ास्त्र",
        -10.06729093044332
      ],
      [
        "घ्न",
        -10.068304481703729
      ],
      [
        "ात्त",
        -10.0711255844542
      ],
      [
        "▁कर्ता",
        -10.07113639821362
      ],
      [
        "▁भद्रे",
        -10.071435094204906
      ],
      [
        "मण्डल",
        -10.07270602741399
      ],
      [
        "▁कौसल्या",
        -10.072901656989927
      ],
      [
        "▁वीरं",
        -10.073739039602644
      ],
      [
        "वृद्ध",
        -10.073882422876276
      ],
      [
        "मर्थ",
        -10.07511912743504
      ],
      [
        "स्ता",
        -10.075454233065392
      ],
      [
        "सुर",
        -10.075713271683474
      ],
      [
        "मभ्य",
        -10.076027198530625
      ],
      [
        "▁कीर्ति",
        -10.076056869046004
      ],
      [
        "▁निशितै",
        -10.076402054206728
      ],
      [
        "▁दुर्",
        -10.077878968110946
      ],
      [
        "स्त्रि",
        -10.07817300084493
      ],
      [
        "▁मन्यते",
        -10.078895747637665
      ],
      [
        "विव्याध",
        -10.07909941246212
      ],
      [
        "▁भ्रात्रा",
        -10.07922862922473
      ],
      [
        "▁शक्तिं",
        -10.079355546145628
      ],
      [
        "ेतां",
        -10.080512741886537
      ],
      [
        "▁प्रकृति",
        -10.08051687904796
      ],
      [
        "त्सु",
        -10.081916116735862
      ],
      [
        "नेन",
        -10.081942995335842
      ],
      [
        "▁प्राप्तो",
        -10.081968273054258
      ],
      [
        "▁कुरव",
        -10.083687761290175
      ],
      [
        "▁ताम",
        -10.083709696260875
      ],
      [
        "▁चन्द्र",
        -10.084182277345814
      ],
      [
        "ास्तत्र",
        -10.084266241063911
      ],
      [
        "▁नल",
        -10.08428377488369
      ],
      [
        "▁पितुः",
        -10.087095351884432
      ],
      [
        "▁धनुः",
        -10.087851402041142
      ],
      [
        "▁बद्ध",
        -10.088028550759097
      ],
      [
        "▁शूल",
        -10.088062927986767
      ],
      [
        "दिश",
        -10.088178864302083
      ],
      [
        "नन्दन",
        -10.088212329279544
      ],
      [
        "▁तस्यां",
        -10.088272390441409
      ],
      [
        "ैस्त",
        -10.088762995377753
      ],
      [
        "▁पुराण",
        -10.089738383557483
      ],
      [
        "▁ऋषि",
        -10.090749921552968
      ],
      [
        "▁स्नेह",
        -10.090771656382188
      ],
      [
        "ञ्",
        -10.091598097335204
      ],
      [
        "पुष्प",
        -10.091677001644038
      ],
      [
        "▁दानं",
        -10.091847281267256
      ],
      [
        "▁पुत्रेण",
        -10.092839254077216
      ],
      [
        "▁सर्वत्र",
        -10.093057061556454
      ],
      [
        "नित्य",
        -10.093194578484386
      ],
      [
        "नी",
        -10.094177867873718
      ],
      [
        "ोऽयम",
        -10.094494444195828
      ],
      [
        "▁सखा",
        -10.094633535249631
      ],
      [
        "▁तप",
        -10.09477093166004
      ],
      [
        "▁भगवान",
        -10.095013097486513
      ],
      [
        "▁इवा",
        -10.095701960595228
      ],
      [
        "▁परुष",
        -10.096745339759387
      ],
      [
        "स्यास्य",
        -10.09726015948483
      ],
      [
        "▁गृह्य",
        -10.097287975918285
      ],
      [
        "▁गो",
        -10.097915217559414
      ],
      [
        "▁निपातित",
        -10.098016116737078
      ],
      [
        "रणे",
        -10.09838257894556
      ],
      [
        "सार",
        -10.0984620711953
      ],
      [
        "स्यापि",
        -10.098771922939738
      ],
      [
        "▁महाहवे",
        -10.099560485891953
      ],
      [
        "▁व्रत",
        -10.099595313842803
      ],
      [
        "▁द्विप",
        -10.0996607421403
      ],
      [
        "र्यथा",
        -10.099715452725595
      ],
      [
        "▁विश्व",
        -10.099892925472588
      ],
      [
        "▁दृष्ट",
        -10.100431300923152
      ],
      [
        "के",
        -10.100434224934736
      ],
      [
        "्यमान",
        -10.100548339490128
      ],
      [
        "▁सर्वस्य",
        -10.10116875941526
      ],
      [
        "ययौ",
        -10.101885390961874
      ],
      [
        "▁पाद",
        -10.10192334742216
      ],
      [
        "▁मास",
        -10.104036545181051
      ],
      [
        "ान्वित",
        -10.104059182690172
      ],
      [
        "वज्र",
        -10.104845348103728
      ],
      [
        "▁समर्थ",
        -10.104910529149407
      ],
      [
        "▁पादौ",
        -10.105191865227011
      ],
      [
        "पाल",
        -10.105318329658378
      ],
      [
        "▁ध्रुवं",
        -10.105643592241364
      ],
      [
        "▁शक्या",
        -10.105998654583718
      ],
      [
        "▁प्रदक्षिण",
        -10.106262670927311
      ],
      [
        "▁पुरी",
        -10.106562118847172
      ],
      [
        "▁कुम्भकर्ण",
        -10.106876447136123
      ],
      [
        "▁शीत",
        -10.110475537876024
      ],
      [
        "दिति",
        -10.11142310125043
      ],
      [
        "▁प्राज्ञ",
        -10.113235626573694
      ],
      [
        "▁पार्थः",
        -10.113258957607226
      ],
      [
        "▁ब्राह्मणो",
        -10.11329092619792
      ],
      [
        "▁शुक्र",
        -10.114154792265
      ],
      [
        "▁प्रत्यक्ष",
        -10.114322556005977
      ],
      [
        "▁श्रुतं",
        -10.11443637519751
      ],
      [
        "▁युक्तं",
        -10.114799955676087
      ],
      [
        "▁प",
        -10.11513610976419
      ],
      [
        "▁द्रोणपुत्र",
        -10.117368043953782
      ],
      [
        "क्त",
        -10.117415055812764
      ],
      [
        "▁चिक्षेप",
        -10.117603124247635
      ],
      [
        "▁परमां",
        -10.117851605764386
      ],
      [
        "थाब्रवीत्",
        -10.119345915906427
      ],
      [
        "▁मुहूर्त",
        -10.119392037455183
      ],
      [
        "▁सात्यकि",
        -10.119477373541978
      ],
      [
        "▁करिष्यति",
        -10.119676001302455
      ],
      [
        "▁योऽ",
        -10.119983491678084
      ],
      [
        "▁बुद्धिं",
        -10.12065990470595
      ],
      [
        "मृषि",
        -10.121187803602732
      ],
      [
        "▁बभौ",
        -10.12134191764067
      ],
      [
        "▁धनुर्",
        -10.121794568017034
      ],
      [
        "▁सव्यसाचिन",
        -10.122059953516114
      ],
      [
        "▁हंस",
        -10.122176909811888
      ],
      [
        "▁हित",
        -10.122708147459798
      ],
      [
        "▁कुन्ती",
        -10.122823102022668
      ],
      [
        "यत",
        -10.122841049763334
      ],
      [
        "पथ",
        -10.122858132809132
      ],
      [
        "▁पुरुषा",
        -10.12330225579635
      ],
      [
        "▁कर",
        -10.1239390936708
      ],
      [
        "▁राक्षसाः",
        -10.123976193794764
      ],
      [
        "श्चिच्छेद",
        -10.125346833570148
      ],
      [
        "▁याति",
        -10.125751425204808
      ],
      [
        "ोऽस्य",
        -10.126376295094154
      ],
      [
        "▁मुहुर्मुहु",
        -10.126685738893489
      ],
      [
        "▁भीष्मस्य",
        -10.126779784207253
      ],
      [
        "▁शुशुभे",
        -10.127400368229406
      ],
      [
        "▁वद",
        -10.127575639293267
      ],
      [
        "▁पाञ्चाल",
        -10.12759434019656
      ],
      [
        "▁दशग्रीव",
        -10.128712020051433
      ],
      [
        "ब",
        -10.128873745035484
      ],
      [
        "▁वृतः",
        -10.129518377718371
      ],
      [
        "▁मधुर",
        -10.130095266082368
      ],
      [
        "ागम",
        -10.130500787407213
      ],
      [
        "वर्तन्त",
        -10.130550917151812
      ],
      [
        "▁नियत",
        -10.131812225503126
      ],
      [
        "▁एतद्",
        -10.13217410642498
      ],
      [
        "▁महादेव",
        -10.132257114170446
      ],
      [
        "▁शांतनव",
        -10.132535233842615
      ],
      [
        "▁सन्ति",
        -10.13369759124183
      ],
      [
        "ैषा",
        -10.134665524309709
      ],
      [
        "▁कश्चिद्",
        -10.134686776452064
      ],
      [
        "▁वशे",
        -10.134927786827223
      ],
      [
        "▁वृत्र",
        -10.135535053735666
      ],
      [
        "सर्प",
        -10.135916423188498
      ],
      [
        "▁गतिं",
        -10.135948063450344
      ],
      [
        "▁तमुवाच",
        -10.136277913970606
      ],
      [
        "▁नाति",
        -10.136499353483938
      ],
      [
        "▁गाण्डीव",
        -10.137488123399509
      ],
      [
        "प्रभृति",
        -10.137783139344627
      ],
      [
        "प्रभ",
        -10.137963754763865
      ],
      [
        "▁इत्य",
        -10.138080660171584
      ],
      [
        "णं",
        -10.138719544131854
      ],
      [
        "▁शक्त",
        -10.14036675566816
      ],
      [
        "पद",
        -10.140717819348923
      ],
      [
        "▁जाता",
        -10.141212936983036
      ],
      [
        "मुखा",
        -10.141463688816035
      ],
      [
        "▁रिपु",
        -10.142931132835844
      ],
      [
        "ास्ति",
        -10.14304248885081
      ],
      [
        "स्वन",
        -10.143730074486651
      ],
      [
        "शर",
        -10.14400037974088
      ],
      [
        "▁मानवः",
        -10.144773794131709
      ],
      [
        "▁आत्मान",
        -10.144859684339878
      ],
      [
        "मप्य",
        -10.145360190928884
      ],
      [
        "यथा",
        -10.146909576246616
      ],
      [
        "वाक्य",
        -10.147414741132724
      ],
      [
        "▁तिष्ठन्त",
        -10.147657920484892
      ],
      [
        "▁गान्धारी",
        -10.147667621298242
      ],
      [
        "्युवाच",
        -10.147922373600048
      ],
      [
        "ै;र्",
        -10.148048238711624
      ],
      [
        "पा",
        -10.148143136879636
      ],
      [
        "द्ध",
        -10.148373505234677
      ],
      [
        "▁दैव",
        -10.149699471614266
      ],
      [
        "▁व्रज",
        -10.149845590560242
      ],
      [
        "तत्र",
        -10.149867150584946
      ],
      [
        "मिवा",
        -10.15077837971579
      ],
      [
        "ताः",
        -10.151645087091133
      ],
      [
        "▁दुष्कृत",
        -10.151731547170655
      ],
      [
        "जं",
        -10.152228627733262
      ],
      [
        "रस",
        -10.152265472434957
      ],
      [
        "▁रुद्र",
        -10.153586879604664
      ],
      [
        "▁सोऽहं",
        -10.153867985675207
      ],
      [
        "कारण",
        -10.1546437008371
      ],
      [
        "▁नृशंस",
        -10.154798531094062
      ],
      [
        "▁क्षत्रधर्म",
        -10.154935690670492
      ],
      [
        "क्रोध",
        -10.155123906526509
      ],
      [
        "ाभरण",
        -10.155867094648158
      ],
      [
        "जल",
        -10.156053168315614
      ],
      [
        "▁द्रुपद",
        -10.156386407214775
      ],
      [
        "▁नाव",
        -10.156842118281094
      ],
      [
        "▁यत्त",
        -10.157786384823154
      ],
      [
        "▁समय",
        -10.157795004601656
      ],
      [
        "ादिव",
        -10.158414312946135
      ],
      [
        "▁वसुधा",
        -10.15870979288627
      ],
      [
        "▁रावणो",
        -10.15887921033685
      ],
      [
        "▁संवत्सर",
        -10.158931963921354
      ],
      [
        "▁विज्ञाय",
        -10.159325453982634
      ],
      [
        "िष्ये",
        -10.159845190441564
      ],
      [
        "▁कृश",
        -10.160254200912256
      ],
      [
        "▁नष्ट",
        -10.160564661083916
      ],
      [
        "ुं",
        -10.16099093168687
      ],
      [
        "भूता",
        -10.16103357298461
      ],
      [
        "महामनाः",
        -10.16148914601428
      ],
      [
        "▁गोविन्द",
        -10.16152388728468
      ],
      [
        "भ्यभाषत",
        -10.161804722151157
      ],
      [
        "▁मुने",
        -10.162126599642413
      ],
      [
        "ित्वा",
        -10.164009281777354
      ],
      [
        "▁समाहितः",
        -10.1650006298794
      ],
      [
        "▁रक्त",
        -10.165357977983549
      ],
      [
        "▁भविष्यन्त",
        -10.16552275703792
      ],
      [
        "मस्य",
        -10.165835438255517
      ],
      [
        "▁विधि",
        -10.166746547191824
      ],
      [
        "▁भरतसत्तम",
        -10.16681500456605
      ],
      [
        "▁पद",
        -10.167314074088656
      ],
      [
        "▁वैदेह्या",
        -10.169365010499911
      ],
      [
        "▁तस्थ",
        -10.169957998562152
      ],
      [
        "हे",
        -10.170275546435732
      ],
      [
        "रत्न",
        -10.170291610864606
      ],
      [
        "स्तूर्ण",
        -10.171190828699306
      ],
      [
        "▁दाशार्ह",
        -10.17151062342111
      ],
      [
        "▁श्रोतुमिच्छाम",
        -10.172437179222609
      ],
      [
        "▁प्राञ्जलि",
        -10.174027612570129
      ],
      [
        "▁क्रियता",
        -10.17413855006124
      ],
      [
        "▁कस्यचित्",
        -10.174631547677205
      ],
      [
        "परम",
        -10.174733644128978
      ],
      [
        "पूर्वं",
        -10.174800253216825
      ],
      [
        "▁कथित",
        -10.175270067175347
      ],
      [
        "मेष",
        -10.175476340414342
      ],
      [
        "युक्तं",
        -10.1755823128065
      ],
      [
        "निव",
        -10.175949446617352
      ],
      [
        "▁दिवाकर",
        -10.176691796261297
      ],
      [
        "प्रेक्ष्य",
        -10.1771463104564
      ],
      [
        "▁वीर्यं",
        -10.177948355620307
      ],
      [
        "▁यादृश",
        -10.177949760599656
      ],
      [
        "धर्मभृता",
        -10.17818436092358
      ],
      [
        "▁रोचते",
        -10.178771564225602
      ],
      [
        "▁मद्रराज",
        -10.178773516511448
      ],
      [
        "घ",
        -10.17900041685467
      ],
      [
        "ात्मक",
        -10.179118950026286
      ],
      [
        "▁पुरोहित",
        -10.179858886072807
      ],
      [
        "पुर",
        -10.181163566210127
      ],
      [
        "▁जित्वा",
        -10.181662367069832
      ],
      [
        "▁लब्ध",
        -10.182125216293125
      ],
      [
        "▁मुक्त",
        -10.1823254081514
      ],
      [
        "ाम्यहम",
        -10.182972315160258
      ],
      [
        "▁लोमश",
        -10.183094652916823
      ],
      [
        "जाल",
        -10.18324171347735
      ],
      [
        "ीम्",
        -10.183526530269983
      ],
      [
        "हर",
        -10.183747335430702
      ],
      [
        "धनंजय",
        -10.183761551506702
      ],
      [
        "ब्राह्मण",
        -10.18383136217279
      ],
      [
        "चित्र",
        -10.18396228553534
      ],
      [
        "▁रघुनन्दन",
        -10.184237830118672
      ],
      [
        "▁भीष्मेण",
        -10.184446706470446
      ],
      [
        "▁त्यज",
        -10.184461868276736
      ],
      [
        "▁पुरुषं",
        -10.184668854145528
      ],
      [
        "▁शुक",
        -10.18471853644087
      ],
      [
        "रेव",
        -10.18484360087684
      ],
      [
        "▁नरक",
        -10.186882889607952
      ],
      [
        "यते",
        -10.18765463790481
      ],
      [
        "▁राजर्षि",
        -10.18772837885676
      ],
      [
        "▁परिघ",
        -10.188138632212304
      ],
      [
        "▁धर्मराजो",
        -10.188749040365138
      ],
      [
        "ेऽपि",
        -10.18932244600093
      ],
      [
        "व्यय",
        -10.189453783158015
      ],
      [
        "▁कृत्स्ना",
        -10.189669804754338
      ],
      [
        "▁शोणित",
        -10.190906679968784
      ],
      [
        "िर्",
        -10.191665843936851
      ],
      [
        "▁शयन",
        -10.19183835107106
      ],
      [
        "मिन्द्र",
        -10.191854223799176
      ],
      [
        "▁भविष्यस",
        -10.192146779639938
      ],
      [
        "▁परे",
        -10.19351993973153
      ],
      [
        "▁रक्षसा",
        -10.193569053624994
      ],
      [
        "स्थं",
        -10.19498132439788
      ],
      [
        "्राप्युदाहरन्तीम",
        -10.195308524196475
      ],
      [
        "▁परंतपः",
        -10.19591053200866
      ],
      [
        "▁निवृत्त",
        -10.19594090120739
      ],
      [
        "क्रिया",
        -10.19617993399356
      ],
      [
        "विध",
        -10.197175814343405
      ],
      [
        "▁भार",
        -10.197850247124444
      ],
      [
        "ज्ज",
        -10.19854221955372
      ],
      [
        "मर",
        -10.198771653425942
      ],
      [
        "▁विनाश",
        -10.19878883528542
      ],
      [
        "मूलं",
        -10.198875074962857
      ],
      [
        "यान",
        -10.19903764238508
      ],
      [
        "▁प्राप्नोत",
        -10.199089269008647
      ],
      [
        "मन्त्र",
        -10.199146724648704
      ],
      [
        "योध",
        -10.199443431732986
      ],
      [
        "▁शान्त",
        -10.20067657769182
      ],
      [
        "▁कार्मुक",
        -10.201419253463497
      ],
      [
        "▁लेभ",
        -10.201457520708171
      ],
      [
        "ार्य",
        -10.201616887612698
      ],
      [
        "न्तः",
        -10.20209422961656
      ],
      [
        "▁राक्षसी",
        -10.202676350227293
      ],
      [
        "प्रभुः",
        -10.2032484373692
      ],
      [
        "कर्मसु",
        -10.203642189523762
      ],
      [
        "मुक्त",
        -10.204746031931435
      ],
      [
        "ाणाम",
        -10.204843657971782
      ],
      [
        "प्रवर",
        -10.20545191903304
      ],
      [
        "▁पथि",
        -10.205478660770323
      ],
      [
        "ैर्वि",
        -10.206451375038148
      ],
      [
        "▁अप",
        -10.20686368840775
      ],
      [
        "▁नृपते",
        -10.207155758751664
      ],
      [
        "▁भवेद्",
        -10.208589714255892
      ],
      [
        "तौ",
        -10.209100819428905
      ],
      [
        "र्म",
        -10.210133026713123
      ],
      [
        "▁ननाद",
        -10.210415579772071
      ],
      [
        "मांस",
        -10.210567129989016
      ],
      [
        "▁वाहिनी",
        -10.210632159341689
      ],
      [
        "रति",
        -10.21101943354482
      ],
      [
        "प्रतिम",
        -10.211842920428444
      ],
      [
        "सत्त्व",
        -10.21247154015289
      ],
      [
        "तश्च",
        -10.212957689084664
      ],
      [
        "ालय",
        -10.213047510261294
      ],
      [
        "स्तत्",
        -10.213262507202632
      ],
      [
        "▁तत्त्वतः",
        -10.213633496245016
      ],
      [
        "▁तद्वाक्य",
        -10.214527005312394
      ],
      [
        "▁अब्रवीत्",
        -10.215083194131784
      ],
      [
        "भोग",
        -10.215772150085632
      ],
      [
        "कार",
        -10.21597315341803
      ],
      [
        "माश्रित्य",
        -10.216321743235206
      ],
      [
        "▁भीमसेनो",
        -10.21635612242438
      ],
      [
        "▁सुदारुण",
        -10.216597924144716
      ],
      [
        "▁कालो",
        -10.216665863865632
      ],
      [
        "▁रक्ष",
        -10.216726691793582
      ],
      [
        "▁शरीरं",
        -10.21810539800852
      ],
      [
        "▁मुहूर्तं",
        -10.2185021916749
      ],
      [
        "जीव",
        -10.218983429102032
      ],
      [
        "क्रम",
        -10.219175300871782
      ],
      [
        "▁दीन",
        -10.219307935184265
      ],
      [
        "▁सुपर्ण",
        -10.219337012725088
      ],
      [
        "▁पृथिव्या",
        -10.219686730640523
      ],
      [
        "▁महीपते",
        -10.220212737090922
      ],
      [
        "▁लक्ष्मणः",
        -10.220852598607078
      ],
      [
        "▁प्रहृष्ट",
        -10.222241315298586
      ],
      [
        "▁इष्ट",
        -10.222746889196891
      ],
      [
        "▁श्रेयो",
        -10.2227630560145
      ],
      [
        "▁पण्डित",
        -10.222772916020205
      ],
      [
        "▁कश्चिद",
        -10.223066892491351
      ],
      [
        "▁वध्यमाना",
        -10.223087215245904
      ],
      [
        "▁दत्तं",
        -10.223554737426864
      ],
      [
        "शृङ्ग",
        -10.2247634439741
      ],
      [
        "कर्मणः",
        -10.226244109637667
      ],
      [
        "शङ्क",
        -10.226343633897091
      ],
      [
        "▁शरा",
        -10.226602504949138
      ],
      [
        "रात्र",
        -10.226669584972544
      ],
      [
        "ोऽसौ",
        -10.22729455630808
      ],
      [
        "ोऽर्जुन",
        -10.227860298603105
      ],
      [
        "▁विषम",
        -10.228562970668312
      ],
      [
        "यम्",
        -10.22902804587804
      ],
      [
        "न्यथा",
        -10.229602823325642
      ],
      [
        "▁सम्यक्",
        -10.229641773115349
      ],
      [
        "▁युवा",
        -10.230639063170065
      ],
      [
        "ुम्",
        -10.230714811860487
      ],
      [
        "प्राप्य",
        -10.230887831911875
      ],
      [
        "▁आश्रम",
        -10.231274754815804
      ],
      [
        "गो",
        -10.2314756955712
      ],
      [
        "▁सायक",
        -10.231629939807018
      ],
      [
        "▁संताप",
        -10.231953956102444
      ],
      [
        "▁लङ्कां",
        -10.232059856535956
      ],
      [
        "शस्त्र",
        -10.2325200774154
      ],
      [
        "भाति",
        -10.232649846762865
      ],
      [
        "मित्येव",
        -10.232865570187458
      ],
      [
        "मतः",
        -10.23318640990442
      ],
      [
        "▁द्रोणेन",
        -10.233513655197852
      ],
      [
        "मिच्छसि",
        -10.233779051617626
      ],
      [
        "ग्राह",
        -10.233925483016776
      ],
      [
        "मद",
        -10.234320987404756
      ],
      [
        "▁अव",
        -10.23461909754771
      ],
      [
        "भू",
        -10.235080993500716
      ],
      [
        "पते",
        -10.23592346123122
      ],
      [
        "▁भाषित",
        -10.235936261381775
      ],
      [
        "▁प्रयच्छ",
        -10.236310814832102
      ],
      [
        "▁बलि",
        -10.237202129888336
      ],
      [
        "ग्रह",
        -10.237963199431968
      ],
      [
        "ार",
        -10.23800029346275
      ],
      [
        "घोष",
        -10.238244213344128
      ],
      [
        "माचक्ष्व",
        -10.23883943860461
      ],
      [
        "स्तां",
        -10.238856223674054
      ],
      [
        "पार्थ",
        -10.238951208637676
      ],
      [
        "▁विविधा",
        -10.239658846830702
      ],
      [
        "▁मातरं",
        -10.239921244573097
      ],
      [
        "दन्त",
        -10.240194551503295
      ],
      [
        "▁महाद्युति",
        -10.240924914843765
      ],
      [
        "▁हीन",
        -10.241320328467866
      ],
      [
        "▁शितैः",
        -10.241577656878563
      ],
      [
        "▁चतुर्दश",
        -10.241692512358217
      ],
      [
        "मथा",
        -10.242910400990118
      ],
      [
        "स्तद",
        -10.243421727536232
      ],
      [
        "▁रोष",
        -10.244496337080172
      ],
      [
        "प्राण",
        -10.244600710887283
      ],
      [
        "▁सत्येन",
        -10.245357450151207
      ],
      [
        "▁इय",
        -10.245394071938165
      ],
      [
        "मर्जुन",
        -10.24562193285366
      ],
      [
        "▁प्रिया",
        -10.245662116179664
      ],
      [
        "वंश",
        -10.245730381559888
      ],
      [
        "▁अति",
        -10.24582201172426
      ],
      [
        "िन्द्र",
        -10.246150171226176
      ],
      [
        "▁सात्यकिं",
        -10.246935521680872
      ],
      [
        "रूपेण",
        -10.24704036937676
      ],
      [
        "▁पुरीं",
        -10.247191368318378
      ],
      [
        "▁ब्राह्मणस्य",
        -10.247715921926233
      ],
      [
        "▁पाण्डु",
        -10.247831090444576
      ],
      [
        "भी",
        -10.248158668136384
      ],
      [
        "ोऽभि",
        -10.24823790796822
      ],
      [
        "▁शेष",
        -10.248276007038648
      ],
      [
        "▁गर्भ",
        -10.248789237998723
      ],
      [
        "▁गृहे",
        -10.248797993784684
      ],
      [
        "्यया",
        -10.248939109607644
      ],
      [
        "दद",
        -10.249016101498793
      ],
      [
        "सदृश",
        -10.249067794421816
      ],
      [
        "▁स्पर्श",
        -10.24938749733239
      ],
      [
        "▁मरण",
        -10.24993203341912
      ],
      [
        "संनिधौ",
        -10.250116728119773
      ],
      [
        "▁गदया",
        -10.25022872191816
      ],
      [
        "▁प्रतिजग्राह",
        -10.25027837256225
      ],
      [
        "माज्ञाय",
        -10.251596721586806
      ],
      [
        "▁पुत्रक",
        -10.252003367569458
      ],
      [
        "▁द्रोणस्य",
        -10.252298276533391
      ],
      [
        "▁विधिना",
        -10.253206954682492
      ],
      [
        "व्यक्त",
        -10.254558909870656
      ],
      [
        "▁दूर",
        -10.254662837994353
      ],
      [
        "▁दुर्बल",
        -10.25516345106881
      ],
      [
        "िष्य",
        -10.255977102314317
      ],
      [
        "▁स्वेन",
        -10.255987357431115
      ],
      [
        "▁ददृशु",
        -10.256177660218842
      ],
      [
        "▁पाण्डुपुत्र",
        -10.257000506970162
      ],
      [
        "▁देवं",
        -10.257090698083063
      ],
      [
        "मात्मान",
        -10.2579743875383
      ],
      [
        "▁वर्तमान",
        -10.258916429534857
      ],
      [
        "▁युक्तो",
        -10.258925573202452
      ],
      [
        "वे",
        -10.259111177689254
      ],
      [
        "▁भल्लेन",
        -10.260230614561774
      ],
      [
        "▁ययाति",
        -10.260301274529402
      ],
      [
        "▁मद",
        -10.2612041154821
      ],
      [
        "▁इमे",
        -10.261668952478356
      ],
      [
        "▁तादृश",
        -10.262360470836144
      ],
      [
        "▁सुहृदा",
        -10.263071777392298
      ],
      [
        "▁एतत्",
        -10.263527484269664
      ],
      [
        "▁वर्ष",
        -10.263620823238451
      ],
      [
        "▁कुरुष्व",
        -10.263676277611616
      ],
      [
        "ाम्य",
        -10.264262390399388
      ],
      [
        "ैश्वर्य",
        -10.264289508397493
      ],
      [
        "▁कुर्वन्त",
        -10.264300113416784
      ],
      [
        "मना",
        -10.2652752500914
      ],
      [
        "▁विख्यात",
        -10.266568099743695
      ],
      [
        "▁वानराः",
        -10.26679762390044
      ],
      [
        "▁तापस",
        -10.267008424373143
      ],
      [
        "▁विमुक्त",
        -10.26799978263534
      ],
      [
        "माना",
        -10.268133633733182
      ],
      [
        "▁पुरुषो",
        -10.268293335836422
      ],
      [
        "सूर्य",
        -10.268325146819938
      ],
      [
        "मात्र",
        -10.268869189021554
      ],
      [
        "▁मांस",
        -10.26900202062626
      ],
      [
        "▁संवाद",
        -10.269421178796222
      ],
      [
        "▁छिन्न",
        -10.270224343660312
      ],
      [
        "कृता",
        -10.270506105275713
      ],
      [
        "गुरु",
        -10.270860844344083
      ],
      [
        "▁श्रिय",
        -10.271328331446854
      ],
      [
        "िताः",
        -10.271371679009595
      ],
      [
        "ाण्य",
        -10.27349381442928
      ],
      [
        "▁सप्तभि",
        -10.274224872319763
      ],
      [
        "▁अनेन",
        -10.274356650791226
      ],
      [
        "पूजित",
        -10.274680400121486
      ],
      [
        "▁कालस्य",
        -10.274836950535544
      ],
      [
        "▁वीराः",
        -10.275656245312916
      ],
      [
        "स्मा",
        -10.275683851494138
      ],
      [
        "▁बुद्धिर्",
        -10.276425845964912
      ],
      [
        "ेत्य",
        -10.276713808489884
      ],
      [
        "▁विमल",
        -10.27689056644883
      ],
      [
        "च्युत",
        -10.278161558063346
      ],
      [
        "तीर्थ",
        -10.278659007728166
      ],
      [
        "रूपा",
        -10.278741213209049
      ],
      [
        "ामिव",
        -10.278936787425623
      ],
      [
        "ाहवे",
        -10.279137839352671
      ],
      [
        "▁विवेश",
        -10.279231382167852
      ],
      [
        "▁विहित",
        -10.279505163513264
      ],
      [
        "▁ययु",
        -10.280118094833206
      ],
      [
        "ोऽन्य",
        -10.280128559333807
      ],
      [
        "ोरसि",
        -10.280273015966324
      ],
      [
        "▁मातुल",
        -10.280507125728631
      ],
      [
        "▁कालं",
        -10.280594868442034
      ],
      [
        "पति",
        -10.28060617326584
      ],
      [
        "▁भीमः",
        -10.280658318293238
      ],
      [
        "ाना",
        -10.280831307647926
      ],
      [
        "▁दृष्टा",
        -10.281091849154478
      ],
      [
        "▁हन्त",
        -10.28201696453506
      ],
      [
        "▁शान्ति",
        -10.28227016367235
      ],
      [
        "ज्ञ",
        -10.282369288666732
      ],
      [
        "िनी",
        -10.282808220229231
      ],
      [
        "वशं",
        -10.283461022755162
      ],
      [
        "▁प्रभु",
        -10.283479848098525
      ],
      [
        "▁युधिष्ठिरो",
        -10.284289769269236
      ],
      [
        "द्विष",
        -10.284321128753074
      ],
      [
        "घात",
        -10.285143243346916
      ],
      [
        "स्तद्",
        -10.285457419403006
      ],
      [
        "▁दिव्यानि",
        -10.285520116817503
      ],
      [
        "ीत",
        -10.28563314427462
      ],
      [
        "▁लोकान्",
        -10.285743613450457
      ],
      [
        "तव",
        -10.287270102594618
      ],
      [
        "▁दक्षिणा",
        -10.287782920113656
      ],
      [
        "▁तत्त्व",
        -10.287836342814856
      ],
      [
        "भयं",
        -10.288732434621584
      ],
      [
        "▁धर्मार्थ",
        -10.28969834022696
      ],
      [
        "वस",
        -10.28988913225767
      ],
      [
        "प्रख्य",
        -10.2908630804031
      ],
      [
        "▁देवो",
        -10.291089258263243
      ],
      [
        "बाहु",
        -10.291517191800466
      ],
      [
        "पुरा",
        -10.292440225056335
      ],
      [
        "▁मिथ्या",
        -10.293113289997052
      ],
      [
        "ार्त",
        -10.293260868089291
      ],
      [
        "▁पर्व",
        -10.29333681511735
      ],
      [
        "तावुभौ",
        -10.293829845840223
      ],
      [
        "▁क्षुद्र",
        -10.294131807707316
      ],
      [
        "ाचार्य",
        -10.29447636034764
      ],
      [
        "जिघांस",
        -10.295554994887038
      ],
      [
        "ोत्तर",
        -10.295883453391047
      ],
      [
        "▁अस्त्र",
        -10.295885243428344
      ],
      [
        "▁प्रभाव",
        -10.29642525184556
      ],
      [
        "ुत्तम",
        -10.297660858218451
      ],
      [
        "▁हा",
        -10.297810191392555
      ],
      [
        "▁कर्माण",
        -10.298853060859514
      ],
      [
        "▁यथ",
        -10.299624434142316
      ],
      [
        "हन्तुं",
        -10.29973155401281
      ],
      [
        "▁शौच",
        -10.299997435325864
      ],
      [
        "▁परमा",
        -10.30047751238538
      ],
      [
        "प्रकाश",
        -10.300907250267294
      ],
      [
        "सहाय",
        -10.301925915821514
      ],
      [
        "वाक्यं",
        -10.302263898009874
      ],
      [
        "▁शत्रुघ्न",
        -10.303966661277098
      ],
      [
        "▁शिला",
        -10.304383424349542
      ],
      [
        "युद्ध",
        -10.30457254703346
      ],
      [
        "पात",
        -10.30461657421452
      ],
      [
        "यन्ति",
        -10.305108561968492
      ],
      [
        "▁ख्यात",
        -10.306576824502844
      ],
      [
        "▁कालः",
        -10.306974828134516
      ],
      [
        "ोऽनु",
        -10.307188289626076
      ],
      [
        "मूर्ध्नि",
        -10.308155268510095
      ],
      [
        "्युत",
        -10.308276750885716
      ],
      [
        "▁जामदग्न्य",
        -10.308298583477956
      ],
      [
        "भुवि",
        -10.30831386286672
      ],
      [
        "सारथिं",
        -10.308794912970578
      ],
      [
        "▁जनेश्वर",
        -10.309222978939491
      ],
      [
        "▁वर्ण",
        -10.30922680473632
      ],
      [
        "वासस",
        -10.309485283455398
      ],
      [
        "मूल",
        -10.309843331859682
      ],
      [
        "▁तत्त्वेन",
        -10.310185187930678
      ],
      [
        "ततोऽहं",
        -10.310312794296902
      ],
      [
        "नाथ",
        -10.31070149221636
      ],
      [
        "▁कृत्स्नं",
        -10.31096007262578
      ],
      [
        "▁दैत्य",
        -10.311395169668875
      ],
      [
        "र्क",
        -10.31173086569016
      ],
      [
        "▁स्वाध्याय",
        -10.312032078837715
      ],
      [
        "▁परिष्वज्य",
        -10.312465775295196
      ],
      [
        "कामा",
        -10.312467129540607
      ],
      [
        "ोऽभ्य",
        -10.31414953614674
      ],
      [
        "▁पूजित",
        -10.31449379421752
      ],
      [
        "यान्तं",
        -10.31492376717593
      ],
      [
        "▁शरैर्",
        -10.314985381961858
      ],
      [
        "मिच्छाम",
        -10.31531166051969
      ],
      [
        "▁ऋषय",
        -10.315428759606124
      ],
      [
        "▁वरद",
        -10.315432573625426
      ],
      [
        "ुक्त्वा",
        -10.315663475366376
      ],
      [
        "▁अश्व",
        -10.316471205345524
      ],
      [
        "वाच",
        -10.316583099875633
      ],
      [
        "▁नव",
        -10.316861469816722
      ],
      [
        "पद्यते",
        -10.317438878118864
      ],
      [
        "▁सौमित्रि",
        -10.31767809897728
      ],
      [
        "▁केश",
        -10.318439168814695
      ],
      [
        "कोविद",
        -10.319224382484354
      ],
      [
        "दृष्ट्वा",
        -10.319359362082206
      ],
      [
        "पुरुष",
        -10.31944673483269
      ],
      [
        "▁संनतपर्व",
        -10.320396667263488
      ],
      [
        "स्थित",
        -10.322346718098128
      ],
      [
        "▁नरो",
        -10.32342183717596
      ],
      [
        "क्षये",
        -10.323608468003236
      ],
      [
        "ोऽद्य",
        -10.323989519960088
      ],
      [
        "▁हया",
        -10.324030995468554
      ],
      [
        "ऽपि",
        -10.324222069372398
      ],
      [
        "ाद्धि",
        -10.324913253901734
      ],
      [
        "▁कुतो",
        -10.325548769038791
      ],
      [
        "▁चान्य",
        -10.325929626199116
      ],
      [
        "▁प्रजानां",
        -10.325980629478018
      ],
      [
        "▁किंचिद्",
        -10.32611965465577
      ],
      [
        "▁शाल्व",
        -10.326272854318391
      ],
      [
        "▁आचार्य",
        -10.326482093449986
      ],
      [
        "▁दूत",
        -10.326701143729188
      ],
      [
        "ाभवत्",
        -10.326938245886554
      ],
      [
        "▁गन्धर्वा",
        -10.326946492072114
      ],
      [
        "मध्य",
        -10.32779416028742
      ],
      [
        "▁कर्मण",
        -10.327964298129595
      ],
      [
        "▁दुर्लभ",
        -10.328682171771565
      ],
      [
        "▁यान",
        -10.328942484958697
      ],
      [
        "▁वनवास",
        -10.329225716195376
      ],
      [
        "▁राजसत्तम",
        -10.329426640642565
      ],
      [
        "▁वारण",
        -10.329439350932269
      ],
      [
        "▁पूर्ण",
        -10.330168222489736
      ],
      [
        "समं",
        -10.33042898306293
      ],
      [
        "▁इत्येवं",
        -10.330549506206207
      ],
      [
        "▁विप्रा",
        -10.330771278086342
      ],
      [
        "विंशत्या",
        -10.331225540566631
      ],
      [
        "गिरि",
        -10.331371606833017
      ],
      [
        "▁यतो",
        -10.334762571503816
      ],
      [
        "तल",
        -10.33612566469098
      ],
      [
        "वर्त",
        -10.33626244886541
      ],
      [
        "▁देशं",
        -10.336453133235786
      ],
      [
        "रं",
        -10.336726056850992
      ],
      [
        "▁अधर्म",
        -10.33700206010979
      ],
      [
        "युग",
        -10.337459337555307
      ],
      [
        "▁लोकाना",
        -10.337714938786844
      ],
      [
        "दीप्त",
        -10.337922461384878
      ],
      [
        "▁सीतया",
        -10.338463052968455
      ],
      [
        "▁त्रय",
        -10.338709796458936
      ],
      [
        "र्जुन",
        -10.338887216285832
      ],
      [
        "ां;",
        -10.339198094892094
      ],
      [
        "▁घोरा",
        -10.33944872403127
      ],
      [
        "▁महीतले",
        -10.339539877881515
      ],
      [
        "नाश",
        -10.34026188715912
      ],
      [
        "▁मनस",
        -10.341185318565216
      ],
      [
        "▁तावका",
        -10.341420513211109
      ],
      [
        "▁कोश",
        -10.34150224265044
      ],
      [
        "वासिन",
        -10.34222198464176
      ],
      [
        "▁प्रवर्तत",
        -10.34300749219954
      ],
      [
        "जित",
        -10.343353666268738
      ],
      [
        "▁नारी",
        -10.343515564495934
      ],
      [
        "▁बाला",
        -10.344000182396256
      ],
      [
        "▁युध्यमान",
        -10.344139298773271
      ],
      [
        "▁दैवं",
        -10.34467357542002
      ],
      [
        "▁सहस्राक्ष",
        -10.345010826058443
      ],
      [
        "वेगेन",
        -10.345179291422388
      ],
      [
        "पत्र",
        -10.345425611109189
      ],
      [
        "नीय",
        -10.345934312759075
      ],
      [
        "▁गा",
        -10.346218697018536
      ],
      [
        "गम्य",
        -10.34672550323914
      ],
      [
        "▁राघवस्य",
        -10.347287652604027
      ],
      [
        "▁पुनश्च",
        -10.347331660612737
      ],
      [
        "▁भक्त",
        -10.347467280527388
      ],
      [
        "▁धार्मिक",
        -10.347517481573655
      ],
      [
        "▁अन्व",
        -10.347662594201182
      ],
      [
        "ासु",
        -10.347881292002963
      ],
      [
        "▁दार",
        -10.348039209797308
      ],
      [
        "ाभ",
        -10.34833441373419
      ],
      [
        "नो",
        -10.348485032068838
      ],
      [
        "▁लोमहर्षण",
        -10.348718228203182
      ],
      [
        "▁शंस",
        -10.348796337979628
      ],
      [
        "▁यत्ते",
        -10.34893356630616
      ],
      [
        "सिंह",
        -10.34921723233698
      ],
      [
        "▁हिरण्य",
        -10.34974754338772
      ],
      [
        "▁शूद्र",
        -10.350422665039742
      ],
      [
        "▁राक्षसा",
        -10.350484444417257
      ],
      [
        "यितु",
        -10.350775686481684
      ],
      [
        "▁स्कन्द",
        -10.351006571901529
      ],
      [
        "▁कृपण",
        -10.351964376104132
      ],
      [
        "नगर",
        -10.353179823443462
      ],
      [
        "ात्प्र",
        -10.353510960482192
      ],
      [
        "प्लव",
        -10.353543751357105
      ],
      [
        "▁तस्मिन्न",
        -10.35422647268654
      ],
      [
        "▁मुदा",
        -10.354370600122966
      ],
      [
        "▁वर्तमाने",
        -10.354970070850545
      ],
      [
        "▁द्वे",
        -10.355490968141943
      ],
      [
        "ैस्तु",
        -10.355614841239476
      ],
      [
        "यमौ",
        -10.35571955890306
      ],
      [
        "सूत",
        -10.356470543252824
      ],
      [
        "▁विचित्र",
        -10.35690644165479
      ],
      [
        "ादप",
        -10.356926844854817
      ],
      [
        "▁श्राद्ध",
        -10.358197342018716
      ],
      [
        "श्चित्र",
        -10.358750080431571
      ],
      [
        "▁नियम",
        -10.359665446201609
      ],
      [
        "भाग",
        -10.360006771428822
      ],
      [
        "ासुर",
        -10.360362390731916
      ],
      [
        "ान्सर्वान्",
        -10.360686773308098
      ],
      [
        "▁करोति",
        -10.36165699271282
      ],
      [
        "▁केचिद",
        -10.361834081273308
      ],
      [
        "र्हि",
        -10.362054257368108
      ],
      [
        "▁मन्यु",
        -10.363281303089272
      ],
      [
        "▁दुरासद",
        -10.363317806886558
      ],
      [
        "भ्यो",
        -10.363453886947289
      ],
      [
        "मेतत्",
        -10.363990396046342
      ],
      [
        "कन्या",
        -10.364076305869691
      ],
      [
        "▁युग",
        -10.364400182047774
      ],
      [
        "▁तुमुल",
        -10.364511635925954
      ],
      [
        "▁महर्षि",
        -10.364669964860228
      ],
      [
        "ांस्त",
        -10.364865219773394
      ],
      [
        "ीनां",
        -10.365029524457846
      ],
      [
        "▁तैर्",
        -10.365289666485678
      ],
      [
        "▁ब्रह्मण",
        -10.365494343757613
      ],
      [
        "▁भरद्वाज",
        -10.36569904510776
      ],
      [
        "▁शक्रो",
        -10.366051970651236
      ],
      [
        "▁वेग",
        -10.366337948127253
      ],
      [
        "मथो",
        -10.366380381078084
      ],
      [
        "कारणात्",
        -10.366444733900554
      ],
      [
        "राज्य",
        -10.366451222749085
      ],
      [
        "▁मेधाव",
        -10.367849362718754
      ],
      [
        "▁निवेशन",
        -10.368066496940775
      ],
      [
        "▁मनीषिण",
        -10.368248561288365
      ],
      [
        "▁संरब्ध",
        -10.368943535441751
      ],
      [
        "▁प्रयत",
        -10.36930522149448
      ],
      [
        "ात्तु",
        -10.369472157743797
      ],
      [
        "▁प्रजापतिः",
        -10.369560507108416
      ],
      [
        "▁भिन्न",
        -10.36974717757458
      ],
      [
        "ाया",
        -10.369827900375592
      ],
      [
        "▁परेषां",
        -10.369943009568289
      ],
      [
        "विद",
        -10.37120960457323
      ],
      [
        "▁पितुर्",
        -10.37140493220234
      ],
      [
        "कु",
        -10.371526872596547
      ],
      [
        "▁विरथ",
        -10.371537725298795
      ],
      [
        "▁भवन",
        -10.371895024594574
      ],
      [
        "▁स्वभाव",
        -10.372515177570484
      ],
      [
        "▁कर्णेन",
        -10.372833967566551
      ],
      [
        "▁आदित्य",
        -10.372955670416856
      ],
      [
        "▁वरुण",
        -10.373016871810492
      ],
      [
        "▁पशु",
        -10.373167572805754
      ],
      [
        "▁मातर",
        -10.37341354504903
      ],
      [
        "न्ध",
        -10.373552133968287
      ],
      [
        "▁चिन्तयामास",
        -10.373803958507477
      ],
      [
        "धाव",
        -10.374023995549816
      ],
      [
        "▁प्रत्यभाषत",
        -10.374260035812554
      ],
      [
        "मार्ग",
        -10.374268774937782
      ],
      [
        "▁त्वरित",
        -10.374494281896322
      ],
      [
        "▁एवमुक्ता",
        -10.37506113493794
      ],
      [
        "▁तासा",
        -10.375365746839693
      ],
      [
        "▁तदेव",
        -10.375427637432054
      ],
      [
        "भोजन",
        -10.375542284737108
      ],
      [
        "▁त्रैलोक्य",
        -10.37575764995924
      ],
      [
        "ानुज",
        -10.376151397759983
      ],
      [
        "▁भगदत्त",
        -10.376168827251584
      ],
      [
        "ोपेत",
        -10.37686742833796
      ],
      [
        "ितो",
        -10.377148525458626
      ],
      [
        "ांस्तु",
        -10.37735183064257
      ],
      [
        "▁तमेव",
        -10.377491686991132
      ],
      [
        "▁सायकैः",
        -10.377670333377152
      ],
      [
        "▁महीपाल",
        -10.377787107800753
      ],
      [
        "▁पृष्ठतः",
        -10.377893297191957
      ],
      [
        "ात्मजः",
        -10.37797959901116
      ],
      [
        "▁अथैन",
        -10.378314730179056
      ],
      [
        "मुक्त्वा",
        -10.378880433891675
      ],
      [
        "र्वि",
        -10.379029639398633
      ],
      [
        "▁ऊर्ध्व",
        -10.379135500462075
      ],
      [
        "▁कन्यां",
        -10.379270677758214
      ],
      [
        "नेत्र",
        -10.379524040447697
      ],
      [
        "दुद्राव",
        -10.379653460930523
      ],
      [
        "रिति",
        -10.380576603275882
      ],
      [
        "निर्",
        -10.38289252738724
      ],
      [
        "वान",
        -10.383649061623943
      ],
      [
        "▁महासुर",
        -10.383939942609183
      ],
      [
        "सी",
        -10.38409348338634
      ],
      [
        "सुतं",
        -10.385394246081894
      ],
      [
        "बाल",
        -10.385570942086469
      ],
      [
        "▁भाव",
        -10.385587629521751
      ],
      [
        "▁शुक्ल",
        -10.385805748242028
      ],
      [
        "धीयत",
        -10.385937983058607
      ],
      [
        "णे",
        -10.386156906030225
      ],
      [
        "▁बाष्प",
        -10.38657210632223
      ],
      [
        "ोऽत्र",
        -10.386984997355173
      ],
      [
        "▁धीमान्",
        -10.387084832734368
      ],
      [
        "▁सुमहान्",
        -10.387487636484892
      ],
      [
        "विक्रम",
        -10.388094843436503
      ],
      [
        "मीश्वर",
        -10.388231854214238
      ],
      [
        "▁रथिन",
        -10.388543439119768
      ],
      [
        ";र्",
        -10.38879570062649
      ],
      [
        "प्रभा",
        -10.390476945151756
      ],
      [
        "▁सेनापति",
        -10.390511311532894
      ],
      [
        "युधिष्ठिर",
        -10.390722986555188
      ],
      [
        "▁भीमेन",
        -10.391051844459014
      ],
      [
        "प्रसाद",
        -10.391146499921833
      ],
      [
        "▁पन्थान",
        -10.391180508496006
      ],
      [
        "▁कच्चित्",
        -10.391427588760504
      ],
      [
        "▁यूय",
        -10.391459947781826
      ],
      [
        "नयन",
        -10.391611041946785
      ],
      [
        "ाम्यहं",
        -10.392518710346932
      ],
      [
        "▁पर्यवारय",
        -10.392559437934882
      ],
      [
        "▁क्रतु",
        -10.39364115154338
      ],
      [
        "▁चक्षुषा",
        -10.393680346733372
      ],
      [
        "▁सम्यग्",
        -10.393764151094732
      ],
      [
        "ान्प्र",
        -10.39409003948862
      ],
      [
        "▁श्रेष्ठो",
        -10.394511006598712
      ],
      [
        "मारुह्य",
        -10.394649920716065
      ],
      [
        "सहस्र",
        -10.394995498951742
      ],
      [
        "▁वृथा",
        -10.395010852806712
      ],
      [
        "▁राजंस्त",
        -10.395112262050716
      ],
      [
        "▁तीक्ष्ण",
        -10.395286422265944
      ],
      [
        "▁क्षणेन",
        -10.395718281780209
      ],
      [
        "समाकुल",
        -10.396434532039482
      ],
      [
        "ायं",
        -10.396451224218984
      ],
      [
        "तमापतन्तं",
        -10.3966438118509
      ],
      [
        "▁भीमस्य",
        -10.397224840644292
      ],
      [
        "▁जगत",
        -10.39775600392231
      ],
      [
        "▁चेत्",
        -10.39823184952497
      ],
      [
        "▁लोकाः",
        -10.39876357338458
      ],
      [
        "लिङ्ग",
        -10.39878268729801
      ],
      [
        "कुरु",
        -10.398993925601594
      ],
      [
        "▁रुचिर",
        -10.399867510394436
      ],
      [
        "वो",
        -10.400758369129576
      ],
      [
        "▁सुरा",
        -10.400762399972756
      ],
      [
        "ाकार",
        -10.400832912930142
      ],
      [
        "ेन्द्रिय",
        -10.401007277700852
      ],
      [
        "▁रूपेण",
        -10.401829401036276
      ],
      [
        "षि",
        -10.401875018448775
      ],
      [
        "▁पाण्डवं",
        -10.401914029484358
      ],
      [
        "▁निपपात",
        -10.401936847600536
      ],
      [
        "र्ष",
        -10.402225016469757
      ],
      [
        "ाङ्गद",
        -10.40231653872674
      ],
      [
        "नित्यं",
        -10.40237047726929
      ],
      [
        "गात्र",
        -10.402947909943691
      ],
      [
        "▁यस्मिन्",
        -10.403145252444377
      ],
      [
        "▁केचित्",
        -10.403363835378794
      ],
      [
        "▁श्रियं",
        -10.40339707676018
      ],
      [
        "▁प्रदद",
        -10.404043001656532
      ],
      [
        "▁वृत्तं",
        -10.404148237812269
      ],
      [
        "▁वैर",
        -10.40485554388182
      ],
      [
        "▁कैकेयी",
        -10.405113539587738
      ],
      [
        "स्मिन्",
        -10.40513088673776
      ],
      [
        "▁तन्न",
        -10.405463027375724
      ],
      [
        "▁मुख",
        -10.405972699053958
      ],
      [
        "▁पुरं",
        -10.407777365956504
      ],
      [
        "▁स्यन्दन",
        -10.40865076890244
      ],
      [
        "▁सुखी",
        -10.40893387899412
      ],
      [
        "▁विशेष",
        -10.409037588267047
      ],
      [
        "तुल्य",
        -10.409345966931156
      ],
      [
        "दश",
        -10.409453168918825
      ],
      [
        "ध्व",
        -10.409483693849433
      ],
      [
        "विप्र",
        -10.410848919638005
      ],
      [
        "▁मह्यं",
        -10.411156704376356
      ],
      [
        "▁यथाकाम",
        -10.411338228583798
      ],
      [
        "▁समपद्य",
        -10.41216943198284
      ],
      [
        "▁निशा",
        -10.412329959042314
      ],
      [
        "वत्स",
        -10.413064441059213
      ],
      [
        "नन्द",
        -10.41332562626188
      ],
      [
        "▁पवन",
        -10.413652511725342
      ],
      [
        "▁सुप्त",
        -10.413819330915086
      ],
      [
        "▁विदित्वा",
        -10.41454594968583
      ],
      [
        "वह",
        -10.414961315045364
      ],
      [
        "▁मत्वा",
        -10.41660631249395
      ],
      [
        "▁योनि",
        -10.41687810638662
      ],
      [
        "▁नित्यश",
        -10.417047914434402
      ],
      [
        "▁उत्तर",
        -10.41742903976347
      ],
      [
        "▁क्षत्र",
        -10.417863485890148
      ],
      [
        "▁समुप",
        -10.417902338249256
      ],
      [
        "▁वात",
        -10.4180119374431
      ],
      [
        "कर्मा",
        -10.41841866136099
      ],
      [
        "परीत",
        -10.418561114673846
      ],
      [
        "रक्ष",
        -10.419318650006185
      ],
      [
        "ाधिप",
        -10.419545305908452
      ],
      [
        "ाद्वि",
        -10.420253475295372
      ],
      [
        "▁विधीयत",
        -10.4204623155877
      ],
      [
        "त्या",
        -10.420849008236068
      ],
      [
        "▁पाण्डवेय",
        -10.42085169436238
      ],
      [
        "▁कुर्वन्",
        -10.42118997399077
      ],
      [
        "▁कश्यप",
        -10.421331902786488
      ],
      [
        "▁गच्छेत",
        -10.421489686425035
      ],
      [
        "▁मारुत",
        -10.422038802585476
      ],
      [
        "▁राक्षसाधिप",
        -10.422164944141262
      ],
      [
        "▁शूरो",
        -10.422389784156891
      ],
      [
        "▁वाचं",
        -10.422493903018625
      ],
      [
        "िना",
        -10.422729500686126
      ],
      [
        "▁काश्यप",
        -10.42294934287128
      ],
      [
        "क्ष्य",
        -10.423339704669196
      ],
      [
        "▁कुरुश्रेष्ठ",
        -10.423462154786778
      ],
      [
        "▁प्रसन्न",
        -10.42361503138708
      ],
      [
        "▁शुश्राव",
        -10.4240212112354
      ],
      [
        "▁कीचक",
        -10.424021258622368
      ],
      [
        "▁छित्त्वा",
        -10.424021263462802
      ],
      [
        "▁रात्रौ",
        -10.424409185976517
      ],
      [
        "▁चक्र",
        -10.425228176864833
      ],
      [
        "दीन",
        -10.426618073752236
      ],
      [
        "▁परित्यज्य",
        -10.427232755332149
      ],
      [
        "▁शोभन",
        -10.427590564483426
      ],
      [
        "▁शनै",
        -10.427623446603526
      ],
      [
        "मत्स्य",
        -10.42868157901602
      ],
      [
        "▁एतत्त",
        -10.428850717404917
      ],
      [
        "वारयत्",
        -10.42936353765612
      ],
      [
        "▁सुहृद",
        -10.429457116341776
      ],
      [
        "भ्यां",
        -10.429524884126344
      ],
      [
        "▁उक्त",
        -10.429715720079413
      ],
      [
        "▁महाभुज",
        -10.43058793767274
      ],
      [
        "विद्या",
        -10.430700210995312
      ],
      [
        "माह",
        -10.430802568995452
      ],
      [
        "विधि",
        -10.430894895377683
      ],
      [
        "▁दशरथ",
        -10.432316787470196
      ],
      [
        "ैकेन",
        -10.432539136081362
      ],
      [
        "मानुष",
        -10.432698050826534
      ],
      [
        "कारिण",
        -10.43306049819907
      ],
      [
        "स्कन्ध",
        -10.43314610452706
      ],
      [
        "हित",
        -10.43360045677536
      ],
      [
        "धार",
        -10.433923727136891
      ],
      [
        "▁कौशिक",
        -10.434128622569164
      ],
      [
        "▁माद्रीपुत्र",
        -10.435217967173156
      ],
      [
        "▁लभेत्",
        -10.435850739593343
      ],
      [
        "▁पार",
        -10.436065775905217
      ],
      [
        "कर्मण",
        -10.437097975398103
      ],
      [
        "युद्धे",
        -10.437154227358125
      ],
      [
        "▁महत",
        -10.437593896226293
      ],
      [
        "▁परै",
        -10.437689002180983
      ],
      [
        "▁मन",
        -10.437723602911898
      ],
      [
        "▁एवमुक्तो",
        -10.437841469618174
      ],
      [
        "▁वदता",
        -10.438389056785116
      ],
      [
        "▁चाब्रवीत्",
        -10.438457642871052
      ],
      [
        "▁केचिद्",
        -10.43860640379784
      ],
      [
        "▁दिवसे",
        -10.438754361133972
      ],
      [
        "हीन",
        -10.438773474932322
      ],
      [
        "कार्मुक",
        -10.438912099387052
      ],
      [
        "ान्वै",
        -10.439561612795965
      ],
      [
        "▁धौम्य",
        -10.43994296197883
      ],
      [
        "▁सत्त्वं",
        -10.440056350786875
      ],
      [
        "▁शिरः",
        -10.44033422108296
      ],
      [
        "▁शुद्ध",
        -10.44088789712887
      ],
      [
        "▁पीत",
        -10.441680908638684
      ],
      [
        "▁ब्रह्मणा",
        -10.44168143873584
      ],
      [
        "▁प्रदीप्त",
        -10.44168789057846
      ],
      [
        "▁व्यूह",
        -10.442025505847614
      ],
      [
        "बुद्धिः",
        -10.44213884540051
      ],
      [
        "▁श्रोतु",
        -10.442724098400015
      ],
      [
        "ञ्ज",
        -10.44285211478352
      ],
      [
        "ाकाश",
        -10.444965568050115
      ],
      [
        "कण्टक",
        -10.445540104381852
      ],
      [
        "▁सर्वां",
        -10.445681957120174
      ],
      [
        "भा",
        -10.44597465277505
      ],
      [
        "▁ग्राम",
        -10.446038222195623
      ],
      [
        "▁गालव",
        -10.446638127739991
      ],
      [
        "▁कृथा",
        -10.446675896998396
      ],
      [
        "▁वह्नि",
        -10.44676071770312
      ],
      [
        "मुपस्थित",
        -10.446967570441863
      ],
      [
        "▁प्रहसन्निव",
        -10.446982369328383
      ],
      [
        "ात्मनि",
        -10.447175526852298
      ],
      [
        "ान्वि",
        -10.44745443844412
      ],
      [
        "▁तपस",
        -10.447509727615738
      ],
      [
        "गद",
        -10.447663012212708
      ],
      [
        "▁स्वक",
        -10.447708805125991
      ],
      [
        "▁विस्तरेण",
        -10.447715811096536
      ],
      [
        "्यर्थ",
        -10.447980869801022
      ],
      [
        "▁शिबिर",
        -10.44799177645756
      ],
      [
        "द्रव",
        -10.449237917280666
      ],
      [
        "▁मृदु",
        -10.44970710338504
      ],
      [
        "सिद्ध",
        -10.449753476503949
      ],
      [
        "▁चात्र",
        -10.450137492728611
      ],
      [
        "▁सदैव",
        -10.45087657894502
      ],
      [
        "सृज",
        -10.450887133597064
      ],
      [
        "▁दर्प",
        -10.450930794884602
      ],
      [
        "▁एतद",
        -10.451404167068029
      ],
      [
        "▁कृताञ्जलिः",
        -10.451895966588715
      ],
      [
        "▁बाहू",
        -10.452154058973475
      ],
      [
        "▁बले",
        -10.45227190114798
      ],
      [
        "▁महर्षयः",
        -10.45230261809693
      ],
      [
        "नर",
        -10.45244538451825
      ],
      [
        "▁पुण्या",
        -10.452933339228611
      ],
      [
        "दृश्यते",
        -10.452951308111668
      ],
      [
        "▁भृगु",
        -10.453022930919868
      ],
      [
        "▁सृञ्जय",
        -10.453098520795203
      ],
      [
        "णां",
        -10.453282452239774
      ],
      [
        "बभौ",
        -10.453364311586432
      ],
      [
        "▁विधिवत्",
        -10.45372482167559
      ],
      [
        "ोक्त",
        -10.45375316202397
      ],
      [
        "▁वित्त",
        -10.454167817898206
      ],
      [
        "ोदक",
        -10.45438935099693
      ],
      [
        "दृश्य",
        -10.45553493320678
      ],
      [
        "▁भोज",
        -10.455876413715464
      ],
      [
        "स्र",
        -10.45604489611579
      ],
      [
        "▁पञ्चम",
        -10.456390070361994
      ],
      [
        "यतः",
        -10.456459890724515
      ],
      [
        "▁सरित",
        -10.456530007176823
      ],
      [
        "मप",
        -10.456833855716472
      ],
      [
        "कुशल",
        -10.45699502717935
      ],
      [
        "▁शक्रस्य",
        -10.457181763669848
      ],
      [
        "▁राज्ये",
        -10.458119723568773
      ],
      [
        "▁तरसा",
        -10.458380695047762
      ],
      [
        "वर्जित",
        -10.45852986687447
      ],
      [
        "▁लक्ष्मणेन",
        -10.459083787586202
      ],
      [
        "▁कर्तुमर्हस",
        -10.459232398775216
      ],
      [
        "तस्य",
        -10.460324837205466
      ],
      [
        "मीदृश",
        -10.461259970640404
      ],
      [
        "पत्य",
        -10.461716109017171
      ],
      [
        "▁कृष्णो",
        -10.463142189163593
      ],
      [
        "▁त्वाम",
        -10.463252620054275
      ],
      [
        "ासौ",
        -10.463289419709891
      ],
      [
        "क्रुद्ध",
        -10.46379611368878
      ],
      [
        "▁बलिना",
        -10.464601133600675
      ],
      [
        "विदित",
        -10.465239903577498
      ],
      [
        "कर्ष",
        -10.465662109545825
      ],
      [
        "▁युद्धम",
        -10.465945194148762
      ],
      [
        "▁सर्वम",
        -10.4666407227091
      ],
      [
        "▁तदिद",
        -10.466919478841856
      ],
      [
        "▁नाम्ना",
        -10.467376827826197
      ],
      [
        "द्वि",
        -10.468236663999894
      ],
      [
        "ागत",
        -10.469446212164756
      ],
      [
        "▁शंकर",
        -10.469775450600936
      ],
      [
        "▁दृष्ट्वैव",
        -10.469887556535172
      ],
      [
        "ान्बहून्",
        -10.47040917447659
      ],
      [
        "▁अवश्य",
        -10.470486435716063
      ],
      [
        "▁त्वमेव",
        -10.470555794506886
      ],
      [
        "▁उग्र",
        -10.470778051560972
      ],
      [
        "▁पातित",
        -10.470819245461405
      ],
      [
        "▁बहुभि",
        -10.471108744399483
      ],
      [
        "▁वास",
        -10.471180800449403
      ],
      [
        "▁पूजां",
        -10.471933295047048
      ],
      [
        "काय",
        -10.47270171951386
      ],
      [
        "द्रुत",
        -10.473544497572146
      ],
      [
        "▁प्रकाश",
        -10.473967288248833
      ],
      [
        "ेमां",
        -10.47410854645091
      ],
      [
        "वानर",
        -10.474113474510116
      ],
      [
        "परे",
        -10.474406336428371
      ],
      [
        "तुर्",
        -10.474789746393174
      ],
      [
        "▁ह्येष",
        -10.47500047723587
      ],
      [
        "शय",
        -10.475094370483356
      ],
      [
        "▁परिवारित",
        -10.475491789638816
      ],
      [
        "ग्र",
        -10.475911973890424
      ],
      [
        "करो",
        -10.47596945851575
      ],
      [
        "जेतुं",
        -10.476121742376684
      ],
      [
        "▁पौत्र",
        -10.476263533577985
      ],
      [
        "श्चास्य",
        -10.47653050144538
      ],
      [
        "▁प्रीत्या",
        -10.47671231428806
      ],
      [
        "ोदय",
        -10.477010388656929
      ],
      [
        "ध्वजं",
        -10.477082971234394
      ],
      [
        "चित्त",
        -10.477304533366784
      ],
      [
        "प्रभाव",
        -10.477761753629624
      ],
      [
        "▁दशभि",
        -10.477847587815374
      ],
      [
        "द्रुम",
        -10.478297691882538
      ],
      [
        "युक्तेन",
        -10.478745279855127
      ],
      [
        "▁चैत",
        -10.479432278045277
      ],
      [
        "▁वैश्य",
        -10.479825085853602
      ],
      [
        "▁अह",
        -10.4798283502062
      ],
      [
        "▁छत्र",
        -10.480027310690527
      ],
      [
        "▁सुग्रीवो",
        -10.48023102653018
      ],
      [
        "वाप्य",
        -10.48039540450985
      ],
      [
        "ञ्श",
        -10.48049043504031
      ],
      [
        "रावण",
        -10.48060782261101
      ],
      [
        "सागर",
        -10.480829590246064
      ],
      [
        "▁तथेत",
        -10.48094809134424
      ],
      [
        "▁आजगाम",
        -10.481750815650972
      ],
      [
        "▁बाहुभ्या",
        -10.48220229153273
      ],
      [
        "▁धृत",
        -10.482495540768124
      ],
      [
        "▁यशः",
        -10.483326405633958
      ],
      [
        "राजन्",
        -10.483788187928871
      ],
      [
        "भवद्",
        -10.484314241711614
      ],
      [
        "▁एतस्मिन्न",
        -10.484495297168335
      ],
      [
        "▁नरोत्तम",
        -10.48451749492281
      ],
      [
        "ानन",
        -10.48461800794787
      ],
      [
        "▁त्यक्त",
        -10.48473805570422
      ],
      [
        "मन्व",
        -10.485673785853368
      ],
      [
        "▁प्राप्ते",
        -10.485843788251763
      ],
      [
        "▁गात्र",
        -10.485917731492211
      ],
      [
        "▁वर्धते",
        -10.485983637095922
      ],
      [
        "▁समागम्य",
        -10.486151788661656
      ],
      [
        "भार",
        -10.486323440908166
      ],
      [
        "▁दुःखेन",
        -10.486830342069428
      ],
      [
        "▁भूमि",
        -10.487026920060302
      ],
      [
        "कुले",
        -10.487592540794404
      ],
      [
        "स्त्री",
        -10.487703748343892
      ],
      [
        "▁वीर्य",
        -10.487719486140172
      ],
      [
        "कर्मणा",
        -10.487831412999746
      ],
      [
        "▁निहते",
        -10.488089375110164
      ],
      [
        "सुराः",
        -10.488425096897972
      ],
      [
        "शास्त्र",
        -10.488557353812563
      ],
      [
        ";न्",
        -10.488616391441075
      ],
      [
        "मेध",
        -10.489760774287298
      ],
      [
        "▁श्रेय",
        -10.489767983768305
      ],
      [
        "मास",
        -10.489856128105233
      ],
      [
        "निपात",
        -10.490037014674638
      ],
      [
        "गर्भ",
        -10.4906565385172
      ],
      [
        "मानो",
        -10.49093177793935
      ],
      [
        "▁गृध्र",
        -10.49108336570228
      ],
      [
        "द्भिः",
        -10.492211535925584
      ],
      [
        "▁हृष्ट",
        -10.49241486879322
      ],
      [
        "▁कुलं",
        -10.492704589793512
      ],
      [
        "मासीन",
        -10.492955410815172
      ],
      [
        "▁नित्यदा",
        -10.493683686938024
      ],
      [
        "मेघ",
        -10.49372120927887
      ],
      [
        "▁ब्रुवत",
        -10.493850258010806
      ],
      [
        "▁अभिवाद्य",
        -10.49414736687798
      ],
      [
        "▁महद्",
        -10.494320346451511
      ],
      [
        "▁विद्वान्",
        -10.49523527557383
      ],
      [
        "ान्ते",
        -10.496717956626842
      ],
      [
        "▁मर्त्य",
        -10.497575132166569
      ],
      [
        "▁मत्",
        -10.498286554663856
      ],
      [
        "मल",
        -10.498324255674104
      ],
      [
        "समायुक्त",
        -10.498617818663416
      ],
      [
        "किं",
        -10.4990294415392
      ],
      [
        "्यथ",
        -10.500146524029722
      ],
      [
        "▁युद्धाय",
        -10.500469469503743
      ],
      [
        "▁जातो",
        -10.50073797928605
      ],
      [
        "▁दिवौकस",
        -10.500962899444414
      ],
      [
        "▁सौमित्रे",
        -10.50120532247389
      ],
      [
        "▁हर",
        -10.50213710658786
      ],
      [
        "▁उत्",
        -10.50224168192901
      ],
      [
        "▁यात",
        -10.5026759184685
      ],
      [
        "▁कृष्णेन",
        -10.50327023374708
      ],
      [
        "▁प्राणान्",
        -10.503482930323331
      ],
      [
        "▁पार्थिवा",
        -10.503780157603572
      ],
      [
        "भीष्म",
        -10.503890199103378
      ],
      [
        "ाचार",
        -10.504287782892304
      ],
      [
        "▁प्रवक्ष्याम",
        -10.504817971569674
      ],
      [
        "▁कुन्तीपुत्रो",
        -10.505384819412644
      ],
      [
        "▁राजशार्दूल",
        -10.50567505124219
      ],
      [
        "▁देवेश",
        -10.505858696913926
      ],
      [
        "ान्प्रति",
        -10.505964808075422
      ],
      [
        "▁गिरा",
        -10.506368130216678
      ],
      [
        "ैतद्",
        -10.506788883760343
      ],
      [
        "▁कच्चिद्",
        -10.506935895312964
      ],
      [
        "▁पुमान्",
        -10.507028840556298
      ],
      [
        "मग्नि",
        -10.507248372889292
      ],
      [
        "ेऽस्मिन्",
        -10.507521947575404
      ],
      [
        "साधु",
        -10.50755098300339
      ],
      [
        "ाश्रमं",
        -10.50824060746688
      ],
      [
        "ैश्चैव",
        -10.509226514501425
      ],
      [
        "▁चित्रसेन",
        -10.509257676273313
      ],
      [
        "▁मानद",
        -10.5096504941085
      ],
      [
        "वर्षं",
        -10.509830112886398
      ],
      [
        "▁शक्यो",
        -10.510545722261366
      ],
      [
        "▁राक्षसाना",
        -10.511213597918506
      ],
      [
        "▁रम्य",
        -10.511807608354086
      ],
      [
        "▁निर्जित",
        -10.512016346038202
      ],
      [
        "▁दिव",
        -10.513564671737544
      ],
      [
        "भेद",
        -10.51371151926353
      ],
      [
        "▁बलात्",
        -10.51407702323451
      ],
      [
        "▁मुनय",
        -10.514166765606175
      ],
      [
        "▁प्रजापति",
        -10.51462570896311
      ],
      [
        "▁भीरु",
        -10.514887731775868
      ],
      [
        "▁कृतो",
        -10.515080868080446
      ],
      [
        "▁यज्ञे",
        -10.515257690232676
      ],
      [
        "तम",
        -10.515402630096194
      ],
      [
        "ाहार",
        -10.515738055956948
      ],
      [
        "सुता",
        -10.515953945475845
      ],
      [
        "वर्म",
        -10.517170366451047
      ],
      [
        "▁वाच्य",
        -10.517707442192998
      ],
      [
        "▁मागध",
        -10.518391052422194
      ],
      [
        "स्येह",
        -10.51842762459908
      ],
      [
        "▁स्वयमेव",
        -10.518648671363998
      ],
      [
        "▁सख्य",
        -10.519835546602163
      ],
      [
        "▁चिन्ता",
        -10.52048004676274
      ],
      [
        "▁खं",
        -10.520601195338458
      ],
      [
        "क्षत्रियाणां",
        -10.52139854631723
      ],
      [
        "▁शिवा",
        -10.52155209521295
      ],
      [
        "▁सम्यग",
        -10.521692534642815
      ],
      [
        "शीर्ष",
        -10.521905036383917
      ],
      [
        "▁दान्त",
        -10.52228920320936
      ],
      [
        "▁मात्रा",
        -10.522750439572512
      ],
      [
        "धर्मेण",
        -10.523318333095064
      ],
      [
        "▁क्षेत्र",
        -10.523666503869896
      ],
      [
        "ानेव",
        -10.5237637349938
      ],
      [
        "मायान्त",
        -10.525061025163009
      ],
      [
        "▁प्रणम्य",
        -10.525908476404153
      ],
      [
        "र्नाम",
        -10.526322487130596
      ],
      [
        "▁दर्शन",
        -10.526382972335744
      ],
      [
        "मेकं",
        -10.526384334276385
      ],
      [
        "▁चेह",
        -10.52665735210348
      ],
      [
        "भक्त्या",
        -10.528219768756784
      ],
      [
        "▁क्लेश",
        -10.528711713994069
      ],
      [
        "र्ह",
        -10.528757721504263
      ],
      [
        "▁सत्यविक्रम",
        -10.528943423193024
      ],
      [
        "याम",
        -10.529039453457642
      ],
      [
        "▁जितेन्द्रियः",
        -10.52944848037189
      ],
      [
        "▁कार्या",
        -10.52957850961774
      ],
      [
        "मनुप्राप्त",
        -10.530218026466525
      ],
      [
        "▁जनकात्मजा",
        -10.53021815782582
      ],
      [
        "▁सीते",
        -10.530473609558626
      ],
      [
        "विक्रमः",
        -10.530722281408872
      ],
      [
        "▁चाहं",
        -10.530733251198674
      ],
      [
        "कर्ता",
        -10.530889560176128
      ],
      [
        "▁द्रव्य",
        -10.531057964249376
      ],
      [
        "▁राज्ञ",
        -10.531164807552098
      ],
      [
        "▁व्याघ्र",
        -10.531508445266068
      ],
      [
        "शार्दूल",
        -10.531666258801003
      ],
      [
        "▁भर्तृ",
        -10.531753768600408
      ],
      [
        "शो",
        -10.532012188938545
      ],
      [
        "▁हेतु",
        -10.532867534796326
      ],
      [
        "ानृत",
        -10.53345944863228
      ],
      [
        "्न",
        -10.533945190974467
      ],
      [
        "दत्त",
        -10.53499867373781
      ],
      [
        "परं",
        -10.53512653967534
      ],
      [
        "पुरोगमा",
        -10.535763190248366
      ],
      [
        "ऽर्जुन",
        -10.53677521004496
      ],
      [
        "▁रथोपस्थ",
        -10.537005528219504
      ],
      [
        "▁दुर्जय",
        -10.537104006201256
      ],
      [
        "▁ज्ञाति",
        -10.537162914506782
      ],
      [
        "▁परपुरंजय",
        -10.537641244021431
      ],
      [
        "▁नेह",
        -10.537882551230028
      ],
      [
        "युक्ता",
        -10.537893265801882
      ],
      [
        "समो",
        -10.538199350617
      ],
      [
        "निवेशन",
        -10.538504256378438
      ],
      [
        "▁शरैर",
        -10.538527258294913
      ],
      [
        "▁प्रसाद",
        -10.538653275342956
      ],
      [
        "▁इत्येव",
        -10.538657523173494
      ],
      [
        "द्र",
        -10.539362806678849
      ],
      [
        "विषय",
        -10.539839351505211
      ],
      [
        "मुद्यम्य",
        -10.539992771353685
      ],
      [
        "▁निहतो",
        -10.53999664349523
      ],
      [
        "वक्त्र",
        -10.54114526131
      ],
      [
        "▁युक्तः",
        -10.541191546879547
      ],
      [
        "ापरे",
        -10.541529857109929
      ],
      [
        "▁रमणीय",
        -10.54154569783327
      ],
      [
        "र्षि",
        -10.54206656090818
      ],
      [
        "▁हृष्टा",
        -10.542378816799497
      ],
      [
        "विशारद",
        -10.54283779274479
      ],
      [
        "▁महान",
        -10.543148859038531
      ],
      [
        "▁एको",
        -10.543827269591578
      ],
      [
        "▁संचिन्त्य",
        -10.54439757614542
      ],
      [
        "ात्मनो",
        -10.544764950353162
      ],
      [
        "▁कुश",
        -10.545797416333656
      ],
      [
        "▁धनुर",
        -10.545905873187124
      ],
      [
        "विशेष",
        -10.546208660007368
      ],
      [
        "मत्र",
        -10.546389894778711
      ],
      [
        "▁प्रहस्त",
        -10.546689693817465
      ],
      [
        "▁वैदेह",
        -10.54678835689938
      ],
      [
        "ध्याय",
        -10.546921058610042
      ],
      [
        "▁दक्ष",
        -10.5472537543221
      ],
      [
        "▁विष",
        -10.54798361595551
      ],
      [
        "▁दिव्या",
        -10.548419781536715
      ],
      [
        "ेष्वप",
        -10.54848196668621
      ],
      [
        "▁तेजो",
        -10.548947873266776
      ],
      [
        "▁वध्य",
        -10.549093027226814
      ],
      [
        "ख",
        -10.549167196823484
      ],
      [
        "▁रवि",
        -10.549271624613008
      ],
      [
        "▁सुतो",
        -10.549408673284642
      ],
      [
        "▁वृष",
        -10.54951807560445
      ],
      [
        "▁विमान",
        -10.55010412907274
      ],
      [
        "िनो",
        -10.550422350404306
      ],
      [
        "ांस्तान्",
        -10.551634330387463
      ],
      [
        "▁दग्ध",
        -10.551847175789506
      ],
      [
        "नय",
        -10.55212353756425
      ],
      [
        "करं",
        -10.552193038170836
      ],
      [
        "▁वृत्ति",
        -10.552559927366758
      ],
      [
        "बला",
        -10.552744778757091
      ],
      [
        "▁नहुष",
        -10.5528734398395
      ],
      [
        "हर्ष",
        -10.552896376198625
      ],
      [
        "रण",
        -10.552964348842153
      ],
      [
        "भूषित",
        -10.553139945696593
      ],
      [
        "रपि",
        -10.554062267028502
      ],
      [
        "▁शाखा",
        -10.554177043691643
      ],
      [
        "त्तदा",
        -10.554629335891672
      ],
      [
        "▁श्व",
        -10.5548809319845
      ],
      [
        "राट्",
        -10.555052685633427
      ],
      [
        "पराक्रम",
        -10.555057376541434
      ],
      [
        "▁पृथा",
        -10.556298333928744
      ],
      [
        "▁मातृ",
        -10.556416346683791
      ],
      [
        "▁रामलक्ष्मण",
        -10.557115546660093
      ],
      [
        "▁गरुड",
        -10.557146548021397
      ],
      [
        "▁निश्चय",
        -10.557179322717316
      ],
      [
        "▁भृत्य",
        -10.557317804044423
      ],
      [
        "▁तस्यैव",
        -10.557648481373324
      ],
      [
        "▁रक्षस",
        -10.557803074129394
      ],
      [
        "बद्ध",
        -10.559615454956122
      ],
      [
        "ज्ञा",
        -10.559737001134645
      ],
      [
        "कृत्",
        -10.559909798094663
      ],
      [
        "ेथा",
        -10.560370677512967
      ],
      [
        "▁देवेन्द्र",
        -10.56099982859425
      ],
      [
        "▁सन्",
        -10.56147738128616
      ],
      [
        "▁कथम",
        -10.561584698978628
      ],
      [
        "▁वाच",
        -10.56166356696017
      ],
      [
        "▁सार्धम",
        -10.562262227368889
      ],
      [
        "▁ह्यसि",
        -10.562290909233331
      ],
      [
        "▁द्व",
        -10.562515982485742
      ],
      [
        "▁महेष्वासो",
        -10.562543408361153
      ],
      [
        "▁शयानं",
        -10.562675953814324
      ],
      [
        "भग्न",
        -10.563397037447684
      ],
      [
        "तेजसा",
        -10.563719715186208
      ],
      [
        "ैतत्",
        -10.564050825023358
      ],
      [
        "च्चापि",
        -10.564058978094838
      ],
      [
        "▁यन्मां",
        -10.564432035167195
      ],
      [
        "▁कच्चिन्न",
        -10.56469632947551
      ],
      [
        "ावृत",
        -10.56479670286075
      ],
      [
        "▁विन्दत",
        -10.564947458396336
      ],
      [
        "▁तुष्ट",
        -10.564989187304567
      ],
      [
        "रक्षसा",
        -10.565173957862385
      ],
      [
        "▁अस्य",
        -10.565554157458966
      ],
      [
        "▁बीभत्सु",
        -10.565597575203448
      ],
      [
        "▁शुभं",
        -10.565745076537276
      ],
      [
        "▁सोमदत्त",
        -10.565825485901968
      ],
      [
        "▁शतक्रतु",
        -10.567031709729726
      ],
      [
        "क्",
        -10.567142486120543
      ],
      [
        "▁प्रमाणं",
        -10.567719720343526
      ],
      [
        "▁विहाय",
        -10.567777626070724
      ],
      [
        "▁बुद्धिर",
        -10.56832509979744
      ],
      [
        "▁विषाद",
        -10.568493657940229
      ],
      [
        "▁कौतूहल",
        -10.568692366149172
      ],
      [
        "▁महारणे",
        -10.569054227670277
      ],
      [
        "▁सती",
        -10.56910307914135
      ],
      [
        "▁महात्मानो",
        -10.56951303507286
      ],
      [
        "▁भुङ्क्ते",
        -10.569765624757505
      ],
      [
        "▁भोग",
        -10.569806682152048
      ],
      [
        "▁विजयाय",
        -10.569999154598678
      ],
      [
        "▁स्त्रीणा",
        -10.570021688120391
      ],
      [
        "▁काष्ठ",
        -10.570297963748711
      ],
      [
        "निषेवित",
        -10.570585492995122
      ],
      [
        "जगाम",
        -10.57090213004247
      ],
      [
        "▁यन्न",
        -10.570932742132502
      ],
      [
        "▁न्यवेदयत्",
        -10.570995307744068
      ],
      [
        "▁अश्वत्थामा",
        -10.57139488763062
      ],
      [
        "र्वा",
        -10.571434581732476
      ],
      [
        "तिष्ठ",
        -10.571742578616565
      ],
      [
        "भरत",
        -10.571943542998078
      ],
      [
        "▁वस",
        -10.572133294412671
      ],
      [
        "▁रात्रि",
        -10.57220971672881
      ],
      [
        "ाभवन्",
        -10.572649875181394
      ],
      [
        "▁नैष",
        -10.572783465422155
      ],
      [
        "▁मय",
        -10.573267857371023
      ],
      [
        "▁शुभाशुभ",
        -10.573775903607052
      ],
      [
        "वाली",
        -10.57386154615331
      ],
      [
        "गतो",
        -10.574393037444102
      ],
      [
        "▁बहुविध",
        -10.574483914350331
      ],
      [
        "▁सीताया",
        -10.574616076727242
      ],
      [
        "मेतद",
        -10.57535764751909
      ],
      [
        "▁जरासंध",
        -10.575721107666238
      ],
      [
        "▁मध्यम",
        -10.57572802278677
      ],
      [
        "▁विश",
        -10.575954123782076
      ],
      [
        "▁शत्रून्",
        -10.575981754765206
      ],
      [
        "मच्युत",
        -10.576372396538384
      ],
      [
        "ाद्वा",
        -10.576509034488934
      ],
      [
        "चाप",
        -10.576573672998716
      ],
      [
        "▁गुप्त",
        -10.576636536034396
      ],
      [
        "▁समागताः",
        -10.577748450508956
      ],
      [
        "▁शब्देन",
        -10.577930340882643
      ],
      [
        "्येव",
        -10.57823361273356
      ],
      [
        "न्या",
        -10.578288984830962
      ],
      [
        "▁द्वार",
        -10.57857508202887
      ],
      [
        "▁वक्तव्य",
        -10.578851984367716
      ],
      [
        "▁भविष्याम",
        -10.578940694602007
      ],
      [
        "▁स्थितो",
        -10.580337218277355
      ],
      [
        "▁शरजाल",
        -10.58034439017973
      ],
      [
        "▁क्षेत्रज्ञ",
        -10.58070713599578
      ],
      [
        "▁भामिनि",
        -10.580967202352795
      ],
      [
        "▁भूमिप",
        -10.581109891312405
      ],
      [
        "क्राम",
        -10.58118203694691
      ],
      [
        "तार",
        -10.581306366275475
      ],
      [
        "▁सहाय",
        -10.581388742296827
      ],
      [
        "▁वेत्त",
        -10.582669703283155
      ],
      [
        "▁सहामात्य",
        -10.582821763630989
      ],
      [
        "▁ददृशुर्",
        -10.58295108037928
      ],
      [
        "सेवित",
        -10.583182347528629
      ],
      [
        "ाकुल",
        -10.583596531613924
      ],
      [
        "▁धृतराष्ट्रो",
        -10.58375469608664
      ],
      [
        "▁पूर्वमेव",
        -10.584302977695984
      ],
      [
        "▁चतुर्",
        -10.58442817396146
      ],
      [
        "गन्धर्व",
        -10.584435791418729
      ],
      [
        "शः",
        -10.584542055901004
      ],
      [
        "ेक",
        -10.58472430217688
      ],
      [
        "▁पार्श्व",
        -10.584922621234652
      ],
      [
        "पूर्ण",
        -10.585471054771231
      ],
      [
        "▁हन्या",
        -10.587929916920723
      ],
      [
        "▁जानात",
        -10.587953836163445
      ],
      [
        "सोम",
        -10.588246560934124
      ],
      [
        "ान्दृष्ट्वा",
        -10.588467507697365
      ],
      [
        "▁सन्त",
        -10.58857309345489
      ],
      [
        "▁समृद्ध",
        -10.58864216081436
      ],
      [
        "पृष्ठ",
        -10.589290062773278
      ],
      [
        "गणा",
        -10.589502161746084
      ],
      [
        "माप्नोत",
        -10.589924319288096
      ],
      [
        "▁स्थिर",
        -10.590032605282854
      ],
      [
        "युद्धं",
        -10.590266507626453
      ],
      [
        "▁पर्जन्य",
        -10.59080162556384
      ],
      [
        "त्वम",
        -10.591027539292227
      ],
      [
        "ारोह",
        -10.591034684404596
      ],
      [
        "पान",
        -10.591056384924023
      ],
      [
        "▁षष्टि",
        -10.591722931990583
      ],
      [
        "कूट",
        -10.591731753738548
      ],
      [
        "वाप्नोत",
        -10.591826954311
      ],
      [
        "▁राजञ्",
        -10.591851522657066
      ],
      [
        "कृते",
        -10.592013915205971
      ],
      [
        "ोरग",
        -10.592234999748186
      ],
      [
        "▁पृथु",
        -10.592420263255708
      ],
      [
        "न्ती",
        -10.592620500392606
      ],
      [
        "गते",
        -10.592721475433876
      ],
      [
        "स्मान्",
        -10.593656222800734
      ],
      [
        "ाल",
        -10.593866581645536
      ],
      [
        "वैरं",
        -10.593877752761838
      ],
      [
        "▁समागत",
        -10.593882629950802
      ],
      [
        "ुग्र",
        -10.593919774335731
      ],
      [
        "▁श्लक्ष्ण",
        -10.594128159889422
      ],
      [
        "▁केशवः",
        -10.59415243569316
      ],
      [
        "▁प्रविष्ट",
        -10.594180335964698
      ],
      [
        "कृत्य",
        -10.59501596353082
      ],
      [
        "था",
        -10.59512514006399
      ],
      [
        "चेतसः",
        -10.59611986441988
      ],
      [
        "▁व्यवसाय",
        -10.596196998866429
      ],
      [
        "र्महा",
        -10.596291419320128
      ],
      [
        "पुंगव",
        -10.596469986901562
      ],
      [
        "▁वारुण",
        -10.596497174919117
      ],
      [
        "लोभ",
        -10.596713044166416
      ],
      [
        "ाशन",
        -10.596963300006788
      ],
      [
        "त्थ",
        -10.597108088092948
      ],
      [
        "▁पतिता",
        -10.597653018177976
      ],
      [
        "ाम्बर",
        -10.597678434590843
      ],
      [
        "्म",
        -10.598143216775036
      ],
      [
        "▁जरा",
        -10.598308522418264
      ],
      [
        "रक्त",
        -10.598437026508432
      ],
      [
        "▁नागा",
        -10.598501146174108
      ],
      [
        "मुखं",
        -10.598597256980234
      ],
      [
        "▁वानराणा",
        -10.598933398021906
      ],
      [
        "▁जिता",
        -10.599559740163922
      ],
      [
        "▁अन्न",
        -10.59982727920598
      ],
      [
        "तेन",
        -10.600342116144446
      ],
      [
        "ब्रवी",
        -10.600393995326892
      ],
      [
        "भक्त",
        -10.60058854251492
      ],
      [
        "▁राष्ट्र",
        -10.601033054215026
      ],
      [
        "▁कृत्य",
        -10.60145062768977
      ],
      [
        "हार",
        -10.60189191140998
      ],
      [
        "वरं",
        -10.6020270621991
      ],
      [
        "्येन",
        -10.602375438191824
      ],
      [
        "र्षभ",
        -10.602505566197452
      ],
      [
        "▁मुख्य",
        -10.60283750370004
      ],
      [
        "महाराज",
        -10.602941711992086
      ],
      [
        "▁मेरु",
        -10.603612165677475
      ],
      [
        "▁शून्य",
        -10.603903456902916
      ],
      [
        "▁विक्रान्त",
        -10.603952150036516
      ],
      [
        "सत्य",
        -10.604502605692309
      ],
      [
        "▁नवभि",
        -10.604697488740548
      ],
      [
        "▁वासुदेवस्य",
        -10.60486082754057
      ],
      [
        "ेश्वरः",
        -10.604948376389132
      ],
      [
        "▁शक्त्या",
        -10.605394156234262
      ],
      [
        "मणि",
        -10.60549005950228
      ],
      [
        "ङ्क",
        -10.60633997713558
      ],
      [
        "▁पालय",
        -10.60663884402862
      ],
      [
        "संकुल",
        -10.606978458192591
      ],
      [
        "▁उत्तम",
        -10.60699665245765
      ],
      [
        "▁प्रहस्य",
        -10.607048736851317
      ],
      [
        "केतु",
        -10.607065726638735
      ],
      [
        "क्षु",
        -10.607238021614194
      ],
      [
        "▁शासन",
        -10.607524759882478
      ],
      [
        "▁पर्याप्त",
        -10.608258700351044
      ],
      [
        "▁शब्दो",
        -10.608520865108051
      ],
      [
        "▁भीत",
        -10.608732583116328
      ],
      [
        "▁राजन्य",
        -10.60909196405388
      ],
      [
        "भूतं",
        -10.609125528561869
      ],
      [
        "र्थं",
        -10.609343557569629
      ],
      [
        "▁मानस",
        -10.609487182549795
      ],
      [
        "मुपागमत्",
        -10.609758276959266
      ],
      [
        "▁निद्रा",
        -10.610765808639748
      ],
      [
        "▁विशिष्ट",
        -10.61077509224586
      ],
      [
        "ासन्",
        -10.610892157700045
      ],
      [
        "▁रक्षो",
        -10.610919762297826
      ],
      [
        "▁वाप्य",
        -10.61123013652534
      ],
      [
        "नृप",
        -10.611316000745594
      ],
      [
        "ायुत",
        -10.611444277115313
      ],
      [
        "▁महाद्युते",
        -10.612058197932106
      ],
      [
        "▁स्नुषा",
        -10.612144926724724
      ],
      [
        "▁भ्रातृ",
        -10.612212514262442
      ],
      [
        "▁भेद",
        -10.61228069283074
      ],
      [
        "हता",
        -10.612935419677337
      ],
      [
        "शिष्यते",
        -10.613794576118469
      ],
      [
        "दृश्यत",
        -10.613879320702678
      ],
      [
        "▁उद्",
        -10.614484246678956
      ],
      [
        "▁ततोऽस्य",
        -10.614845857880995
      ],
      [
        "याः",
        -10.615041820161416
      ],
      [
        "ेश",
        -10.61539227058492
      ],
      [
        "▁ब्रवीमि",
        -10.615472731784168
      ],
      [
        "बुद्ध",
        -10.615724941456566
      ],
      [
        "हत्वा",
        -10.615738505743458
      ],
      [
        "भाषत",
        -10.615748988625215
      ],
      [
        "स्पर्श",
        -10.615805889843402
      ],
      [
        "िष्यन्त",
        -10.61632977229501
      ],
      [
        "सेना",
        -10.616904685908834
      ],
      [
        "▁महारथौ",
        -10.616974669532867
      ],
      [
        "▁द्विजश्रेष्ठ",
        -10.617468688654302
      ],
      [
        "वाहिनी",
        -10.617858298763212
      ],
      [
        "▁कृत्स्न",
        -10.617949292758816
      ],
      [
        "▁दास",
        -10.6185455644421
      ],
      [
        "▁धर्म्य",
        -10.618685184958224
      ],
      [
        "▁ब्रूया",
        -10.619158041115918
      ],
      [
        "▁दुर्ग",
        -10.619208557404416
      ],
      [
        "दूर",
        -10.619247675437244
      ],
      [
        "यश्च",
        -10.619378972153267
      ],
      [
        "भूमि",
        -10.61982991203785
      ],
      [
        "भूमौ",
        -10.619892233148729
      ],
      [
        "▁प्रशंसन्त",
        -10.620075336617596
      ],
      [
        "शक्ति",
        -10.620230575307737
      ],
      [
        "▁यदृच्छया",
        -10.620648512419336
      ],
      [
        "▁परान्",
        -10.620655178460211
      ],
      [
        "करण",
        -10.620944309171293
      ],
      [
        "▁ववर्ष",
        -10.621208097232234
      ],
      [
        "न्तौ",
        -10.621280175100882
      ],
      [
        "▁हनूमन्त",
        -10.62148268497713
      ],
      [
        "णि",
        -10.622208399538524
      ],
      [
        "धर्मं",
        -10.622242743226494
      ],
      [
        "▁भयात्",
        -10.62237330160347
      ],
      [
        "▁दर्शयामास",
        -10.622617277231656
      ],
      [
        "▁अव्यक्त",
        -10.622697816189984
      ],
      [
        "▁विस्मय",
        -10.623245339238924
      ],
      [
        "ादेव",
        -10.62402167672012
      ],
      [
        "▁सुव्रत",
        -10.624188254981425
      ],
      [
        "मागम्य",
        -10.624271393195697
      ],
      [
        "▁चमू",
        -10.624386274361015
      ],
      [
        "ोषित",
        -10.624480382431509
      ],
      [
        "वाप्नुयात्",
        -10.624748335682895
      ],
      [
        "▁महद",
        -10.62513476247955
      ],
      [
        "सहस्रेण",
        -10.625310048062794
      ],
      [
        "▁क्षयं",
        -10.62559216274092
      ],
      [
        "युध्यत",
        -10.625603693531785
      ],
      [
        "ाश्रमपद",
        -10.625796839928167
      ],
      [
        "▁भविष्य",
        -10.625854415821744
      ],
      [
        "▁द्वितीय",
        -10.625872274938182
      ],
      [
        "लब्ध",
        -10.625954573459394
      ],
      [
        "▁प्राणा",
        -10.62655772179154
      ],
      [
        "शेष",
        -10.627100095849167
      ],
      [
        "▁सर्वभूतान",
        -10.627497082023927
      ],
      [
        "▁भवान",
        -10.627760018654843
      ],
      [
        "▁पाणिना",
        -10.628209524829783
      ],
      [
        "▁यज्ञं",
        -10.628451125502975
      ],
      [
        "णम्",
        -10.628700444242808
      ],
      [
        "▁धर्मवित्",
        -10.628752736615738
      ],
      [
        "▁संशितव्रत",
        -10.628830713121658
      ],
      [
        "▁ददृशे",
        -10.6288312696797
      ],
      [
        "सैन्य",
        -10.629013218577391
      ],
      [
        "ार्थाय",
        -10.629095102864818
      ],
      [
        "▁श्रद्धा",
        -10.629362571968931
      ],
      [
        "▁ह्रद",
        -10.629577178073582
      ],
      [
        "र्महाराज",
        -10.629579987376577
      ],
      [
        "प्सु",
        -10.629824495131974
      ],
      [
        "▁जीवन्त",
        -10.629869262595522
      ],
      [
        "▁तस्मा",
        -10.630068251140552
      ],
      [
        "ासाद्य",
        -10.630110486541923
      ],
      [
        "▁सैन्यान",
        -10.630417237105563
      ],
      [
        "▁करुण",
        -10.630621838087489
      ],
      [
        "▁यावत्",
        -10.630651719642213
      ],
      [
        "माश्रित",
        -10.630861701111716
      ],
      [
        "▁बहुश",
        -10.631645354987173
      ],
      [
        "▁क्रुद्धा",
        -10.63178576896453
      ],
      [
        "भूषण",
        -10.631836329069309
      ],
      [
        "ाच्चैव",
        -10.632273697118965
      ],
      [
        "धारिण",
        -10.632390026857802
      ],
      [
        "▁महाकाय",
        -10.632604185455016
      ],
      [
        "मेवं",
        -10.633563815522471
      ],
      [
        "▁योधा",
        -10.633654182560086
      ],
      [
        "▁अल्प",
        -10.633831742182387
      ],
      [
        "▁वृद्धा",
        -10.634017856427334
      ],
      [
        "▁अभिमन्यु",
        -10.634125226070877
      ],
      [
        "▁रजनी",
        -10.634349832514994
      ],
      [
        "ानुप",
        -10.634529507983022
      ],
      [
        "▁तथेत्युक्त्वा",
        -10.634776907245303
      ],
      [
        "▁महेष्वासा",
        -10.634881844673432
      ],
      [
        "स्वर्ग",
        -10.636394025452145
      ],
      [
        "▁यदिद",
        -10.63644171949207
      ],
      [
        "▁गुह्य",
        -10.636484344888151
      ],
      [
        "▁विभु",
        -10.63657793172143
      ],
      [
        "स्माक",
        -10.63666789692558
      ],
      [
        "▁वैकर्तन",
        -10.636920720495349
      ],
      [
        "▁तपस्विनी",
        -10.637137282583724
      ],
      [
        "▁रामाय",
        -10.637696631430714
      ],
      [
        "द्व",
        -10.637717591310675
      ],
      [
        "▁विसृज्य",
        -10.63827227291566
      ],
      [
        "कुण्डल",
        -10.638289501550982
      ],
      [
        "▁संवृत",
        -10.638931906563895
      ],
      [
        "▁युध्यस्व",
        -10.639101435075318
      ],
      [
        "▁कुर्वत",
        -10.639563760856024
      ],
      [
        "▁संगम",
        -10.639699709747743
      ],
      [
        "पदं",
        -10.640621326421318
      ],
      [
        "▁भस्म",
        -10.640759472592698
      ],
      [
        "यिष्याम",
        -10.64126944615106
      ],
      [
        "निश्चयः",
        -10.641276888535277
      ],
      [
        "भ्यः",
        -10.641868802600229
      ],
      [
        "▁हुत",
        -10.642058431605644
      ],
      [
        "▁शाश्वती",
        -10.642138069970835
      ],
      [
        "ानीक",
        -10.642406912570788
      ],
      [
        "ननु",
        -10.642443817390028
      ],
      [
        "▁कृतार्थ",
        -10.643367387138127
      ],
      [
        "ेते",
        -10.643509575630542
      ],
      [
        "▁क्षीण",
        -10.643664979885555
      ],
      [
        "▁स्मृता",
        -10.643886096410782
      ],
      [
        "▁कुम्भ",
        -10.643886508971404
      ],
      [
        "ानेन",
        -10.64397341000836
      ],
      [
        "ोऽहम",
        -10.644017802036752
      ],
      [
        "▁तीव्र",
        -10.645223795636843
      ],
      [
        "हृष्ट",
        -10.6455604190598
      ],
      [
        "▁वध्यमान",
        -10.645864871885792
      ],
      [
        "▁निर्गुण",
        -10.646025419581342
      ],
      [
        "ेन;",
        -10.646353399378
      ],
      [
        "▁प्रसह्य",
        -10.646450782125646
      ],
      [
        "▁सुमहत्",
        -10.648334384231344
      ],
      [
        ":",
        -10.648559438197458
      ],
      [
        "▁आरुरोह",
        -10.648559446431776
      ],
      [
        "त्वा",
        -10.648652949766234
      ],
      [
        "▁पीत्वा",
        -10.648709397430087
      ],
      [
        "हृत",
        -10.649186304241464
      ],
      [
        "▁चेदं",
        -10.649196997065523
      ],
      [
        "▁रणाजिर",
        -10.649385678410397
      ],
      [
        "▁सभार्य",
        -10.64945838959864
      ],
      [
        "धावन्त",
        -10.64961241189376
      ],
      [
        "▁विकृत",
        -10.649615886314828
      ],
      [
        "▁ताभ्या",
        -10.649691612460582
      ],
      [
        "ान्यपि",
        -10.6499433895384
      ],
      [
        "▁नरेश्वर",
        -10.649960008790462
      ],
      [
        "मनस",
        -10.650920515832674
      ],
      [
        "▁स्नात",
        -10.651183166674508
      ],
      [
        "मुपा",
        -10.651677666507426
      ],
      [
        "▁कुन्तीपुत्र",
        -10.65214241250322
      ],
      [
        "▁दुरात्मनः",
        -10.652206521638767
      ],
      [
        "वेष",
        -10.652445267062973
      ],
      [
        "नियत",
        -10.653055355107927
      ],
      [
        "ाख्यान",
        -10.65332431251193
      ],
      [
        "ाश्रमे",
        -10.65394206542194
      ],
      [
        "▁सिद्धा",
        -10.653997573798812
      ],
      [
        "▁शिरो",
        -10.654684463249314
      ],
      [
        "▁पृच्छत",
        -10.654745530008
      ],
      [
        "▁द्रक्ष्यस",
        -10.655152975162906
      ],
      [
        "▁रामे",
        -10.65578590135774
      ],
      [
        "मश्व",
        -10.656056456922
      ],
      [
        "▁बुद्धिमान्",
        -10.65630072022564
      ],
      [
        "▁भवे",
        -10.656563997267282
      ],
      [
        "पावक",
        -10.656567243329633
      ],
      [
        "त्सर्व",
        -10.656585193319632
      ],
      [
        "▁सुमन्त्र",
        -10.656712292877929
      ],
      [
        "ववृते",
        -10.656794235500453
      ],
      [
        "▁नक्षत्र",
        -10.656977882279588
      ],
      [
        "▁शील",
        -10.657061631749938
      ],
      [
        "▁स्वे",
        -10.6571226885139
      ],
      [
        "ीश्वर",
        -10.657176314365849
      ],
      [
        "प्रियं",
        -10.657864494259718
      ],
      [
        "स्तप",
        -10.65814533539277
      ],
      [
        "योनि",
        -10.658263094266715
      ],
      [
        "▁सपुत्र",
        -10.659399995726265
      ],
      [
        "▁तत्रा",
        -10.6596910259643
      ],
      [
        "जः",
[...]
